organization
mantis
consultant
cambridge
uk
approved
news-answers-request@mit.edu
supersede
<19930301143317@mantis
.co.uk>
line
290
archive-name
atheism/resources
alt-atheism-archive-name
resource
last-modified
11
december
1992
version
1.0
atheist
address
usa
freedom
religion
foundation
darwin
fish
bumper
sticker
assort
paraphernalia
write
ffrf
p.o
box
750
madison
53701
telephone
608
256-8900
evolution
design
sell
fish"
's
symbol
christians
stick
car
foot
word
inside
deluxe
moulded
3d
plastic
$4.95
postpaid
7119
laurel
canyon
#4
north
hollywood
ca
91605
people
san
francisco
bay
area
lynn
gold
mailing
<figmo@netcom.com>
net
direct
price
american
press
aap
publish
book
critique
bible
list
biblical
contradiction
handbook"
w.p
ball
g.w
foote
372
pp
isbn
0-910309-26-4
2nd
edition
1986
absurdity
atrocity
immorality
contradict
itself"
base
king
james
140195
austin
tx
78714-0195
7215
cameron
road
78752-2973
512
458-1244
fax
467-9525
prometheus
include
haught
holy
horror
700
east
amherst
street
buffalo
york
14215
716
837-2475
alternate
59
glenn
drive
ny
14228-2197
african-american
humanism
promote
black
secular
uncover
history
freethought
quarterly
newsletter
aah
examiner
norm
allen
jr
african
664
14226
unite
kingdom
rationalist
association
national
society
88
islington
high
702
holloway
london
n1
8ew
n19
3nl
071
226
7251
272
1266
british
humanist
south
place
ethical
14
lamb
conduit
passage
conway
hall
wc1r
4rh
red
lion
square
430
0908
4rl
1271
831
7723
freethinker
monthly
magazine
found
1881
germany
ibka
e.v
internationaler
bund
der
konfessionslosen
atheisten
postfach
880
d-1000
berlin
41
journal
miz
materialien
informationen
zur
zeit
politisch
konfessionslosesn
hrsg
e.v.
miz-vertrieb
ibdk
b"ucherdienst
3005
d-3000
hannover
1
0511/211216
fiction
thomas
disch
santa
claus
compromise
short
story
ultimate
proof
exist
character
event
fictitious
similarity
live
dead
god
uh
well..
walter
miller
canticle
leibowitz
gem
post
atomic
doomsday
monks
spent
life
copy
blueprint
saint
leibowitz"
fill
sheet
paper
ink
leave
white
letter
edgar
pangborn
davy
set
clerical
state
church
forbids
produce
describe
substance
containing..
atom
philip
dick
wrote
philosophical
thought-provoking
bizarre
time
approachable
main
sf
truth
technology
met
sort
remain
sceptical
follow
relevance
galactic
pot-healer
fallible
alien
deity
summons
group
earth
craftsman
woman
remote
planet
raise
giant
cathedral
beneath
ocean
begin
demand
faith
earther
joe
fernwright
unable
comp
polished
ironic
amusing
maze
death
noteworthy
description
technology-based
valis
schizophrenic
hero
search
hidden
mystery
gnostic
christianity
reality
fire
brain
pink
laser
beam
unknown
divine
origin
accompany
dogmatic
dismissive
friend
odd
invasion
invade
make
young
pregnant
return
star
system
unfortunate
terminal
ill
assisted
man
wired
24-hour
easy
listen
music
margaret
atwood
handmaid
tale
premise
congress
mysterious
assassinate
fundamentalist
quick
charge
nation
"right
diary
christian
theocracy
property
revoke
bank
account
close
sinful
luxury
outlaw
radio
reading
crime
punish
retroactive
doctor
perform
legal
abortion
"old
world
hunt
hang
style
difficult
grow
chilling
author
dull
rambling
work
criticize
probable
worth
you'll
fuss
true
non-fiction
peter
de
rosa
vicars
christ"
bantam
1988
catholic
enlighting
papal
adultery
fallacy
german
translation
gotte
erste
diener
die
dunkle
seite
papsttum
droemer-knaur
1989
michael
martin
"atheism
justification
temple
university
philadelphia
detailed
scholarly
atheism
outstanding
appendix
define
terminology
usage
tendentious
argue
negative
i.e.
non-belief
existence
positive
"the
belief
nonexistence
great
refutation
challenge
argument
attention
paid
refute
contempory
theist
platinga
swinburne
541
page
0-87722-642-3
hardcover
paperback
case
comprehensive
contemporary
defence
demonstrate
unsupportable
and/or
incoherent
273
0-87722-767-5
turner
creed
john
hopkin
baltimore
md
subtitled
unbelief
america"
examine
agnostic
atheistic
mainstream
alternative
world-view
focuss
period
1770-1900
france
britain
emphasis
england
development
religious
secularization
intellectual
fate
single
idea
316
0-8018-2494-x
0-8018-3407-4
george
selde
editor
thought
ballantine
dictionary
quotation
kind
concentrate
statement
writings
explicitly
implicitly
present
person
philosophy
obscure
suppress
opinion
popular
observation
trace
express
twisted
century
number
derive
cardiff
noyes'
view
religion"
490
0-345-29887-x
richard
revise
clarendon
oxford
volume
trilogy
coherence
theism
1977
conclude
reason
1981
attempt
construct
series
inductive
rely
imputation
late
20th
western
aesthetics
supposed
simple
conceive
decisive
reject
mackie
miracle
theism"
god"
rebut
posthumous
review
principal
range
classical
position
descartes
anselm
berkeley
hume
al
moral
newman
kant
sidgwick
recent
restatement
theses
plantinga
push
concept
realm
rational
kierkegaard
kung
philips
replacement
lelie
axiarchism
delight
read
formalistic
good
refresh
compare
hand-waving
jame
illustrated
murder
madness
persecution
ancient
day
library
catalog
card
89-64079
1990
anthology
listing
gordon
stein
rationalism
cover
wide
subject
'the
devil
evil
morality'
freethought'
bibliography
edmund
cohen
mind
bible-believer
study
effect
small
mail-based
archive
server
.co.uk
carry
archives
alt
.atheism.moderated
article
file
information
send
mail
archive-server@mantis
/index
back
reply
<19930308134439@mantis
646
/introduction
introduction
5
april
1993
1.2
-----begin
pgp
signed
message-----
mathew
<mathew@mantis
provide
general
neutral
regard
contentious
issue
remember
document
represent
viewpoint
encourage
draw
conclusion
relevant
companion
sense
cohesion
progression
imaginary
conversation
question
crop
repeat
.atheism
newsgroup
create
frequent
answer
note
arguably
slant
answering
pose
faq
reflect
actual
predominant
proselytize
talk
primary
judaism
islam
involve
superhuman
discussion
app
atheism?
characterize
absence
refer
weak
strong
atheism"
important
difference
scepticism
disbelief
fall
trap
assuming
limit
specific
flat-out
denial
disbelieving
thing
doesn't
exist?
definite
proposition
means
equivalent
false
bring
agnosticism
then?
term
'agnosticism'
coin
professor
huxley
meet
metaphysical
1876
disclaim
"strong
things
unknowable
slippery
language
inexact
beware
assume
point
fact
call
"atheist
shades
meaning
generalize
don't
isn't
science
find
universe
basis
choose
feel
major
essential
self-contradictory
logical
impossible
evidence
prove
non-existence
somthe
counter-example
prime
large
deal
well-defined
object
obey
rule
similar
matter
debate
moment
provable
subtle
show
assumption
invalid
hand
require
exhaustive
impractical
problem
accept
unicorn
conclusive
test
default
profess
usual
claim
restrict
variety
followers
present-day
practice
sufficient
counter-argument
impossibility
disprove
real
applicable
non-detectable?
interact
interaction
measurable
detectable
non-detectable
importance
israelites
today
scientific
verifiable
physical
perceive
presence
distinguish
"ok
belief?
common
pastime
redefinition
game
cynical
gradual
re-define
arrives
prepare
record
agree
continue
eventual
fact"
original
definition
apparent
inconsistent
tend
play
digression
depend
crucial
meant
control
power
especial
worship
passing
buddhism
accord
categorize
meaningful
widening
encompass
result
aspect
human
behaviour
suddenly
classed
politics
watch
tv
act
is?
entire
clear
adopt
core
sensory
datum
experience
questioning
throws
doubt
laws
physics
observer
basic
faith"
everthe
lose
complete
individual
scientist
claiming
certain"
tendency
reluctant
certainty
support
fit
match
experimental
lack
assert
anti-religious
label
against"
"enemy"
clear-cut
run
counter
anti-religion"
religiou
believers
speak
atheists
antipathy
hatred
categorization
hostile
unfair
attitude
theists
broad
spectrum
mention
part
social
acceptable
country
convert
historically
impact
eastern
bloc
digress
slight
soviet
union
dedicate
separation
citizen
free
institution
stalin
destroy
order
gain
population
vocal
encroaching
business
government
concern
separate
running
principle
legislate
expense
nature
pure
believer
responsible
political
reform
campaign
increase
spending
foreign
aid
long
discriminate
ground
happy
pray
school
care
prey
voter
lawmaker
can't
ignore
prayer
intimidating
non-christian
told
join
diversity
non-religious
formulate
public
non-prayer
family
reasonable
waste
motive
charity
hospital
purpose
contribute
sake
practical
voluntary
theistic
shout
connection
obvious
everyday
cheap
self-righteous
excuse
plug
build
strange
hold
party
birthday
fuss?
rare
evangelical
backlash
upbringing
rebelling
parent
force
doubtless
chose
conforming
expectation
conformism
independent
differ
people?
heavy
metal
backwards
prefer
verdi
requiem
wear
hawaiian
shirt
dress
orange
robe
buddhist
course!
chance
realise
unexceptional
appearance
unexceptional?
morality
obedience
talks
"right"
unacceptable
"wrong
animal
maximal
successful
cooperate
discourage
anti-social
immoral
self-preservation
behave
compassionate
natural
empathize
happen
immorally
justify
action
equal
trustworthy
deserve
full
acceptance
jesus
christ
save
sinner
mercy
display
unlimited
patience
receive
eternal
immortal
invisible
honor
glory
forever
quote
court
february
17th
jeffrey
dahmer
notorious
cannibal
serial
killer
milwaukee
wisconsin
mass-murderer
trivial
survey
conduct
roper
behavior
deteriorate
bear
4
respondent
intoxicate
again,
12
conversion
illegal
drug
9
percent
admit
engaging
illicit
sex
salvation
"freethought
september
1991
12.
monopoly
explain
characteristic
code?
imply
'ought'
decree
supernatural
deny
god?
90
respond
fundamental
incompatible
observe
unbeliever
ignorance
unbelievers
choice
vast
majority
spend
depth
careful
decision
inevitable
consequence
personality
honest
desire
good-natured
big
brother
figure
what?
mere
true?
risk
approach
decide
unwilling
soul
see!
previous
possibility
reach
open
bias
insincere
offensive
closed-minded
comment
proper
viewed
patronizing
engage
vital
give
benefit
sincere
basical
futile
pointless
atheist?
purposeful
pursue
goal
count
wishing
influence
hope
mark
random
put
life?
sil
cup
coffee?"
comfort
danger?
obtain
pet
spiritual
level
food
drink
sound
empty
vulnerable
face
danger
comforting
harsh
be?
end
comfortable
unhappy
hard
luck
worry
sudden
wrong
you?
year
encounter
suppose
inconclusive
thousand
haven't
future
stop
worrying
beliefs?
beliefs
harm
harm?
huge
financial
burden
mankind
money
building
effort
imagine
healing
plenty
instance
healed
priest
cease
medicine
prescribe
refuse
blood
transfusion
arguable
opposition
birth
condom
overpopulation
third-world
spread
aids
world-wide
child
marry
weren't
believer?
compete
convince
fight
kill
pragmatic
dogma
perverting
teaching
ready
un-christian
couldn't
misinterpret?
perversion
intend
unambiguous
interpretation
say-so?
murdered
"obviously
extreme
share
nonsense
start
dialogue
assertion
entity
inherent
harder
unicorns
myth
valid
popularity
correct
astrology
graphology
pseudo-science
weakness
primitive
phenomenon
adequate
understand
industrialize
explanation
perfect
nowadays
serve
culture
develop
superficial
taoism
denounce
famous
philosopher
determine
realize
leaders
expert
field
special
weight
respected
foolish
lie
expertise
widespread
theory
memetic
meme
propagate
analogy
gene
parasitic
host
avoid
destruction
doctrine
peer
pressure
one-time
mistaken
virtue
associate
propagation
disease
catch
message
surprise
ideas
mindless
uncomfortable
relying
external
change
final
signature-----
2.2
iqcvagubk8ajrxzxn+vroblfaqfsbwp+mhepy4g7ge8mo5wpsivx+khyyxmerfao
7ltvtmvtu66nz6sbbpw9qkbjarby/s2sz9nf5htdii0r6sseypl0r6/9bv9oke/q
nihqnzxe8pgvlt7tlez4eoehzjxlefrdeypvayt54yqqgb4harboehdcrte2atmp
q0z4hssppau=
=q2v5
-----end
pgpinfo@mantis
<65974@mimsy.umd.edu>mangoe@cs
.umd.ed
charley
wingate
>>well
elaborate
theology
>>there
luke
content
>>of
'canonized'
form
>this
little?
q-oid
codify
matthew
knowledge
source
>>assuming
knew
>>give
>i
traditional
attribution
>then
elder
>we're
span
>lifetimes
date
text
age
respective
overwhelming
admitted
>>>(1
early
manuscript
discover
>>interesting
which?
>unfortunately
info
think)
>'70s
'80s
ce
200
shed
putting
rest
three?
>>i
exact
felder
>>first
>>used
>>luke
paul
>well
genuine
wouldn't
it?
id
sender
receiver
fine
miss
>and
"one
step
remove
bad
learn
diciple
>cannot
transformation
gospel
>some
posit
news
report
>information
nthe
disciple
counterargument
generation
illiterate
>>it
edit
>>manuscripts
antiquated
oldest
>>quite
estimate
>the
editing
ending
>hopeless
mess
incompleteness
>to
shortest
break
midsentence
solution
material
verse
pretty
>a
synopsy
connect
redating
john?
dmn@kepler
.unh.edu
...until
ras
resist
flyer
entitle
_the
scroll
spirituality
soul_
bathroom
stall
door
hampshire
assemble
director
campus
'spirituality'
solicits
response
'issue
vague
they're
i've
heard
defend
what???
supporter
enrage
this?
scream
parody
neighbourhood
subgenius
preacher
he'll
mental
mincer
outrageously
gut-busting
funny
paste
<n4hy.93apr5120934@harder.ccr-p.ida.org>
n4hy@harder.ccr-p.ida.org
bob
mcgwier
hate
economic
terrorism
correctness
policy
2
effective
donating
organizat
indirect
gay
boycott
funding
scout
reconcile
2]
rob
strom
strom@watson
.ibm.com
<1993apr5.091139.823@batman.bmd.trw.com>jbrown@batman.bmd.trw.co
didn't
lucifer
nature?
>yes
sweeping
omni-
lead
>i'm
>that
>of
mouth
unresolvable
sentence
>>>now
prevent
ability
>>>to
>>>but
error
>>>being
>now
>it
>an
occur
ordinary
will?
omniscient
self-determination"
conscious
>beings
will"
attribute
creature
omnipotent
left
fixed
extend
tims
>>>if
>>>clearly
>>>the
emergence
ungodliness
evil/sin
outcome
advance
happen?
unipolar
restrain
>free
good"
choice?
loving
obeying
>those
prohibit
>who
well?
scenario
implement
deeds
arguing
conceivable
consistent
deletion
>perhaps
speculating
>ubiquitous
>speculation
>blue
fantasy
disagree
definitional
logic
>there
amount
>which
fair
bolster
>argument
credibility
lot
interest
>>the
motto
originate
star-spangled
banner
>>something
_on_coins_
mccarthyite
smear
equate
>with
communism
unamerican
civil
war
*all*
currency
50
<114127@bu.edu>jaeger@buphy.bu.edu
gregg
jaeger
>>when
victimize
muslim
>>they
tm
annoying
petty
sarcasm
>principle
testify
mohammad
prophet
>so
_must_
>be
you're
psychology
odds
>islamic
attack
>than
criticism
identify
victim
situation
double
standard
reference
trim
livesey@solntze.wpd.sgi.co
jon
livesey
confusion
>assertion
"objective
>here
finish
recursive
>"objectively
eact
>requires
appeal
switch
target
>asking
goal"
goal?"
>suggesting
morals
achieve
survival
propogation
specie
declaration
independence
guarantee
liberty
pursuit
happiness
end?
>>murder
violation
golden
>>defined
intentional
killing
non-murderer
>>and
execution
>>innocent
capital
punishment
fail
>>system
objective
violate
golen
pillar
current
manner
implementation
approximation
>"arbitrary
keith
schneider
arbitrary
>still
personal
>killing
kuweit
saudi
>arabia
prc
whit
arbitary
reasoning
>>then
>because
nope
answered
multiple
>>>how
stay
>>>default
cutoff
point?
>>years
40
>why
notion
>in
makeup?
about?
interpret
portion
ago?
>>to
borrow
color
>>until
>not
>have
*was*
judge
subjective
objectivity
wanting
discuss
merit
wpr@atlanta.dg.com
bill
rawlins
patent
untrue
ad
>>nauseum
complexity
>>law
>my
disorder
not?
freze
water
you've
crystal
liquid
entropy
local
creation
od
dna
process
incalculable
anthropic
circumvent
probablilty
>>but
racism
psycholgical
>>benefits
>when
right?
ideal
suit
warrant
psychological
>believe
racist
>parallelism
>usage
phrase
parallel
poor
>>as
shoot
>>realizing
automobile
>>accident
*know*
>>continue
>uh
i'm
i'd
>conclude
lifetime
fatal
accident
likelihood
surprising
firing
squad
gun
blank
guilty
>murder
>myself
situtation?
option
bit
tired
probabilistic
condescending
consolation
innocent
bastard
lethal
injection
>personal
sole
statistical
approach?
>you
unswerving
adherent
>outweighing
fuck
plane
crash
electric
blender
execute
fudge
factor
70
approve
>>death
penalty
shortcoming
reasonable?
*you*
reasonability
>aside
revenge
punishment?
fairness
favor
murderer
>revenge?
pathetic
minority
>we
televise
hot
topic
>did
segment
advocate
jurisprudence
cite
>main
it"
>human
compassion
forgiveness
sympathy
sympathy?
wrongs
length
advantage
turn
concept?
sacr
imprisonment
>>sure
release
>>can't
undo
imiprisonment
>>imprision
cost
>>probably
implant
>>electronic
device
>would
alive
prison
chair?
criminal
commit
irrelevant
due
shouldn't
administer
minimum
person?
>>if
convict
>>introduced
inability
>>totally
absolute
>if
collective
blame
>blood
cast
ballot
>capital
>every
member
blame--they've
traffic
>>by
maintain
class
>place
unjust
occasional
predisposition
success
rate
escape
we|be
we're
lock
beauchaine
bobbe@vice.ico.tek.com
queens
blow
bronx
sank
manhattan
sea
propose>that
trend
depression
>(and
sexual
promiscuity
>linked
>provide
stage
thesis
>seems
request
ponder
damn
reducible
rough
mathematical
soundness
socialization
background
validate
pretend
xenophobia
guilt
intolerance
adherence
role
depress
mileage
vary
>>someone
>>now
reduce
xx
reintroduce
>>a
extra
>bob
utility
unconscionable
transportation
detriment
continued
stretch
wasn't
punsihment
why?
pin
corner
won't
tiring
thread
a.a
mon
apr
19:09
:21
gmt
60
<1phnkoinnbk@ctron-news
.ctron
.com>
king@ctron
.com
adpeters@sunflower.bio.indiana.edu
andy
peters
>>funny
jack
>>implication
probability
protean
molecule
>>less
10^-50
>as
recall
10^-114
>>[lists
abiogenesis
>its
>patient
>just
total
complex
objective?
>most
>years
doctrinal
>ventured
arena
speculation
>involved
e.g.
program
sequence
>tells
cell
divide
>been
designer
>nonetheless
minded
type
creationist
t.o
unsupported
he/she
ignorant
task
insult
check
detail
sin
10^50
_biology
abiogenesis?
past
school?
chris
colby
faq?
paleontology
geology
know?
speculative?
~10,000
flame
_not_
idiot
_much_
calling
speculative
chemistry
sense?
rejection
creationism
sign
close-mindedness
misinterpreted
worst
accuse
unclear
prose
>jack
scott
smullins@ecn
.purdue.edu
clean
curious
quantity
quality
on-line
inaccurate
transmission
solomon
40,000
horse
stalls
4,000
fundy
straw
man?
context
research
dave
butler
prophecy
tyre
excellent
anti-inerrancy
tooth
well-researched
hundred
thrown
toss
bunch
salad
cut
inerrancy
embarassing
josh
mcdowell
dj
p.s
ftp.rutgers
.edu
/pub/soc.religion
.christian/others/contradictions
uneven
side
compilation
exam
wonderful
finding
>theory
unfathomable
evolve
>complex
organism
genetic
mutation
selection?
...stuff
delete
computer
...of
creator
sand
silicon
integrate
circuit
processor
board
interesting
plant
oxygen
light
photosynthesis
leap
resort
simpler
incapable
beginning
busy
143048io30436@maine.maine.edu
<io30436@maine.maine.edu>
dan
johnson-
bravo
go(ds
0
beautiful!
>nanci
ann
<nm0w+@andrew.cmu.edu>
folk
terminate
eternity
>for
flibble
glop
ork
groink
>own
classic
excessive
trouble
*can*
charlie
doug
graham
dgraham@bnr.ca
>much
fun
>is
>actually
sanction
executions--
risks--is
*probability*
air
>state
administers
>either
>later
probablity
raondom
activity
presumable
isolate
airline
>>both
>driving
fly
inflict
>prisoners
>willingly
law
someday
>issue
>accident
vey
expect
numner
vehical
>>no
witness
fault
>no
>depend
>does
mistake
>>is
possibilty
invalidating
system?
*my*
>or
circumstance
>consequences
>ought
malicious
intent
>>possibilty
ramification
>>objective
one?
murder"
implicit
>>we're
>>truth
>>reasonable
>sorry
quoting
accurate
thinking
voting
>what
slide
>quite
jury
*persuaded*
>doubt
knowing
conviction
method
approximate
twelve
>moreover
prejudiced
>may
persuade
laugh
>>fair
>>truth?
>above
punishnment
flawed
degree
fairly
>>clear
devise
>pretty
sure?
confront
*your*
important?
theories'
>never
justice
>system
row
dozen
>none
decent
do?
'ideal'
justie
wave
>magic
wand
>on
working
recognize
>end
responsibility
gee
>wonder
strict
preferable
shelter
magic
ceremony
>games
pack?
le
forget
omniscience
mr
>moral
predictable
>thing
<199304041750.aa17104@kepler
>stall
postings
>stop
now!
>thanks
dana
add
bottom
nice
emergency
toilet
robert
mellish
fog
ic
email
r.mellish@ic.ac.uk
rm03@sg1.cc.ic.ac.uk
irc
hobnob
mrs
joyful
prize
rafia
usatoday
association"
>i'll
enjoyment
typo
mine
[dan
sunday
newspaper
cartoon
section!
y.k
committ
statistics
declare
temporary
baptist
propose
link
ten
reliable
crap
pull
mozumder
marriage
*defined*
notice
<1993apr5.011255.7295@cbnewsl.cb.att
stank@cbnewsl.cb.att
stan
krieger
rec.scouting
>established
netnew
scouting
fringe
forum
>anti-societal
related
engender
feelings
wether
anti-societal
implication
plan
input
significant
group!
rape
rapist
throw
cage
tiger
mauled
tiger?
>>perhaps
imprision
>>instead
>>implanted
electronic
wait
crime?
>potential
communist
*before*
bsa
preference
boyd
critz
iii
<71611.365@compuserve.com>
enviroleague
announcement
march
7
compuserve
service
formal
sm
youth
movement
,"enviroleague,
founder
cis
id#
71611,365
peoria
illinois
education
male
female
environment
incorporate
not-for-profit
corporation
initial
application
draft
bylaws
mission
adult
foster
improved
steward
condition
user
accomplishment
seek
catalyst
focus
preservation
improvement
establish
environmentally
participatory
involvement
environmental
branch
complement
suitable
uniform
insignia
badge
syllabus
literature
item
desirable
3
clearing
house
exchange
assist
recruit
train
leadership
operate
division
elementary
middle
grade
formation
"enviroleague
team
charter
impose
obstacle
membership
status
improper
additional
nearby
restriction
top
govern
administrative
function
mentor
manual
17
updated
proud
medium
simultaneous
outdoor
home
subsequent
governance
council
elect
chief
guardian
chairman
ceo
309
675-4483
418
il
61651-0418
contact
diskette
ibm
dos
ascii
cdt@rocket.sw.stratus
--if
company
cdt@vos
.stratus
investors'
packet
speculate
populatio
ridiculous
newsreader
stance
accor
typical
selfish
motivation
intrinsic
qualitative
measure
assign
periphery
selfishness
idle
adam
coope
weakling
acooper@macalstr.edu
<1993apr5.163738.2447@dcs
.warwick.ac.uk>
simon@dcs
.warwick.ac.uk
simon
clippingdale
[deleted
category
format
mathew@mantis
not(believe(gods
ii
believe(not(gods
quibble
`strong'
god/s
introspection
sway
suitab
*faith*
faqs
space
exist"
'usual
sense'
clarification
webster
1a
allegiance
duty
loyalty
1)
fidelity
promise
2)
sincerity
intention
2a
trust
firm
esp
syn
observation"
observtion
refering
to?
pro
con
direction
predispose
whoe
partent
active
does/does
misguide
precise
viable
imo
ahead
anthropomorphise
i'll
glad
to.
violent
thinks
misunderstood
polite
cheer
department
tel
(+44
203
523296
warwick
525714
coventry
cv4
7al
u.k
singleton
bobs@thnext.mit.edu
snm6394@ultb.isc.rit.edu
s.n
horrible
bobby
proficient
genocide
somone
wars
caused/led
hitler
absurd
peace
advice
nanci
nm0w+@andrew.cmu.edu)
deep
ingrain
<1993apr5.024150.10193@wam.umd.edu
west@next02cville.wam.umd.edu
stilgar
crichton
_jurrasic_park_
contently
billion
blink
eye
tomorrow
humble
progress
master
cool
saving
with-
jump
that..
brian
west
sig
-"to
west@wam.umd.edu
jurassic
park
diclaimer
<1pi8h5innq40@gap.caltech.edu>
keith@cco.caltech.edu
allan
>(reference
trimmed
>livesey@solntze.wpd.sgi.com
>>assertion
>>here
>>"objectively
>>requires
circular
semantics
recursiveness
inefficient
assembly
programmer
>>asking
>>suggesting
>propogation
>presented
>should
oft-quot
inalienable
deception
proving
purchase
whos
inalienable?
valuable
victim?
beautiful
inviolate
_includes_
restricted
life/liberty
also?
>>>murder
>>>defined
oooh
infant
coma
accidental
that?
>>>and
>>>innocent
>>>i
>>>system
>>some
>>that
>>"arbitrary
>>still
>>killing
>>arabia
ozland!!!!!!!
societal
>concepts
>keith
euphemism
cs
.utexas.edu!geraldo.cc.utexas.edu!portal.austin
.ibm.com!awdprime.austin
.ibm.com!zazen
jcopelan@nyx.cs
.du.edu
<dl2021-310393180711@m249-66.bgsu.edu
dl2021@andy.bgsu.edu
pixie
ol'
bug-zoo
bgsu)
>atheist
blind
more?
"atheist"
familiar
wearing
lilac
socks
sock
presumption
6
harbor
suffer
image
gaea
pinnacle
sexism
maddi
hausmann
madhaus@netcom.com
centigram
communication
corp
jose
california
408/428-3553
kid
professional
.utexas.edu!uunet!olivea!sgigate!sgiblab!adagio.panasonic.com!nntp-server.caltech.edu!bdunn
<93090.141001e62763@trmetu.bitnet
<e62763@trmetu.bitnet>
>hi.i'm
turkish
guy
atheism,satenism
buddism
instant
>s
hislife.finally
islambecause
here.from
view,you
drop
>deep,dark
dusty
wall
well.but
upward
blue
sky
.you'dsee
>he
.allah
moham
ager
.now,let
generate
thermodynamics
.w
>hat
''first
kiss''?that
is,the
spark
.has
>tself?you
bother
yourselve
bang
spa
>rk?please
bit.think
:isla
>m|
stuff
again?
cyclical!
.utexas.edu!uunet!olivea!sgigate!sgiblab!adagio.panasonic.com!nntp-server.caltech.edu!keith
<930401.112329.0u1.rusnews
.w165w@mantis
<11710@vice.ico.tek.com
stand
feed
clothe
remainder
judicial
appeals
etc.?
imprison
hour
economics
oppose
zaphod.mps
.ohio-state.edu!usc!elroy.jpl.nasa.gov!nntp-server.caltech.edu!juliet.caltech.edu!lmhnews-software
vax/vms
vnews
1.41
18
<1apr199313404295@skyblu.ccit.arizona.edu<
lippard@skyblu.ccit.arizona.edu
lippard
<in
<31mar199321091163@juliet.caltech.edu<
lmh@juliet.caltech.edu
henling
lawrence
m.
<<atheism
greek
'a'
'theos'
<<agnosticism
'gnostein
<no
belief--a
<belief
<that
incline
<here
belief--that
<of
holding
<atheism
<_atheism
justification_
larry
lmh@shakes
.caltech.edu
ssauyet@eagle.wesleyan
.ed
sauyet
>first
bullet
guess
>i'd
>otherwise
>your
essence
>expanding
occurence
`murder'
infinite
deduce
>definition
bottoming
>can
factorial
>positive
integer
product
>equal
math
lesson
longstanding
feud
travesty
distant
kills
infinity
never-ending
loop
slaying
non-existent
resolve
problem,
uninduced
nested
infinte
finite
humanity
induction
solve
unreducable
definition?
>mathew
>blame
his/her
predominate
instictive
frame
clinica
insane
pcb
relate
navy
tatoo
mom"
love
mom
virile
shift
weekend
week
crutch
guide
fascinating
rationalization
watch..
america
extreemist
belt"
>also
>higher
>typical
>same
>other
>somewhere
>expresses
anybodys
inferior
mode
idic
combination
soda
<1993apr5.165233.1007@news
.unomaha.edu
trajan@cwis
stephen
mcintyre
satan
paradoxes
solid
run-about
embody
ascribe
dual
knife
sculpt
metaphorical
qur'an
tradition
shelf
table
overnight
enter
undiscovered
germ
spoiled
>but
personify
believe?
heaven
hell
modern
literal
*worked*
worm
pass
consumer
satanic
beg
allah
flatland
dragon
egg
hearted
con-
cept
[some
dimension
speaker
convention
metaphor
allegory
unseen
reference`
reader/listener
model
compro-
mise
speaking
metaphorically
clarity
directness
equivalence
perception
cripple
spirit
metaphorical?
metaphorical,
tormentor
testament
job
temptor
gospels
spirit.
bar
satanist
evil.
metaphor"
philosophize
reader
delve
wishes
e-mail
libertarian
pro-individuality
pro-responsibility
jazz..
<1ph4c8$8j6@shrike.und.ac.za>
dace@shrike.und.ac.za
roy
dace
}herb
huston
huston@access
.digex.com
cannibalism
favorite
sharks
mackerel
shark
fetus
cannibalize
stomache
gruesome
}fair
aware
}rapidly
thoughtless
thin
}that
non-cannibalism
`value'
_homo
sapiens_
non-cannibalistic?
herb
apologize
apologieze
*if*
woolfie
lupus
honorable
mother
sister
twixt
boundary
drastic
reconsile
view.
wolfie
doesnt
path
wolfe
anthonyp@riscsm.scripps
.e
anthony
pelletier
giberish
>interested
exception
>really
rna
re-create
>references
information"
giberish?
<1993apr3.214557.24073@midway.uchicago.edu
<1pmjo8inn2l0@lynx.unm.edu>lines
21
<1pmjo8inn2l0@lynx.unm.edu>
bevans@carina.unm.edu
mathemagician
straight
don't?
straight(as
arrow
17-year
summer
camp
boss
'pansy'
'one
guys'
respect
teach
tolerance
'faries'
antibigot
>date
16:30
:50
>from
<west@next02cville.wam.umd.edu>
<kmr4.1422.733983061@po.cwru.edu
kmr4@po.cwru.edu
>ryan
<1993apr5.025924.11361@wam.umd.edu>
>west@next02cville.wam.umd.edu
illiad
undisputed
god(tm
*prove
wrong*
dispute
ergo
proven
counter-counter-example
nanny-nanny-boo-boo
tbbbbbbbtttttthhhhh
8^p
<65882@mimsy.umd.edu>
mangoe@cs
.umd.edu
>i've
>might
rationality
unsolvable--
>solve
interrupt
jim
wash
<1993apr5.084042.822@batman.bmd.trw.com
jbrown@batman.bmd.trw.com
pathogen
acid
rain
meteor
volcano
earthquake
unquote
occurrence
amaze
audacity
al.
disaster
mind?
sadistic
>>even
inception
>>disease
>>humanity
forsook
protection
>>god
adverse
>>inevitably
entropic
'collective'
bullcrap
from?
undertake
affect
eve
tho
trillions
*i*
vote
tree
hmm
generalization
shoulda
nancus
))that
)raised
)one
)because
)compare
homo
)point
)but
)stayed
)feminists
)that
)mentally
)your
)said
)becuase
code
ethics
)can
)based
cloud
)thinking
)yeah
)bad
awright!
shit-for-brain
he'd
thorazine
prescription
fortunate
long,long,long
ago
>>peace
.sig
stands
uncreate
itself?
not-exist"
here?
anything/everything
omnipotence
useless
descriptive
all-powerful
illustrate
nuclear
military
straighten
omnipotent"
doctrine/philosophy
interfere
internal
affairs
yugoslavian
technical
unilateral
yugoslavia
intervene
non-interference
limited
consideration
powerful
misunderstanding
.ibm.com!karner
<c4qav2.24wg@austin
<1993apr2.103237.4627@cadence.com>lines
<1993apr2.103237.4627@cadence.com>
mas@cadence.com
masud
khan
.ibm.com>
karner@austin
karner
>okay
official
>records
pseudo-marriage
>convenience
move
lover
scruples
contract
utilize
loophole
>religious
complains
>nobody
alert
imam
>far
penetration
astound
outlawed
practise
buddy
fantasise
contrary
*some*
retort
bullshit
information?
fatwa
leash
perpetrator
forward
confess?
extremism
co-religionary
fat
indulge
forgive
arrogant
silly
insinuate
koranic
netter
disclaimer
employ
aix
.vnet.ibm.com
.ohio-state.edu!wupost!uunet!olivea!sgigate!odin!fido!solntze.wpd.sgi.com!livesey
livesey@solntze.wpd.sgi.com
<1993mar31.230523.13892@blaze.cs
.jhu.edu
<11705@vice.ico.tek.com>
<1pic4linnrau@gap.caltech.edu>
objection
>cruel
unusual
painles
cruel
dawn
koff!
sleep
cruel?
<1p6rgcinnhfb@gap.caltech.edu
<1p88fi$4vv@fido.asd
.sgi.com>
<1993mar30.051246.29911@blaze.cs
.jhu.edu>
<1p8nd7$e9f@fido.asd
<1pa0stinnpqa@gap.caltech.edu>
<1pan4f$b6j@fido.asd
.sgi.com>lines
20
<1pieg7inns09@gap.caltech.edu>
falls
hear
indefinable
i?
wupost!uunet!olivea!sgigate!sgi!fido!solntze.wpd.sgi.com!livesey
<93089.050046mvs104@psuvm.psu.edu
<1pa6ntinns5d@gap.caltech.edu>
<1993mar30.210423.1302@bmerh85.bnr.ca>
<1pcnqjinnpon@gap.caltech.edu>
<kmr4.1344.733611641@po.cwru.edu>
<1pi9btinnqa5@gap.caltelines
<1pi9btinnqa5@gap.caltech.edu>
ryan
over?
fifty
dollar
recipe
cookie
hey
<1993mar30.205919.26390@blaze.cs
<1pcnp3innpom@gap.caltech.edu>
<1pdjip$jsi@fido.asd
<1pi9jkinnqe2@gap.calteclines
<1pi9jkinnqe2@gap.caltech.edu>
>>>default?
inherit
steam
<1993apr3.095220.24632@leland
.stanford.edu><1993apr5.084042.822@batman.bmd.trw.com>
<1993apr5.084042.822@batman.bmd.trw.com>
jbrown@batman.bmd.trw.comresponds
grief
.stanford.edu>
>galahad@leland
.stanford.edu
compton
a.k.a
sagemaster
so?
>answering
bacterial
viral
>babies
antibody
fault?
>question
scotty
followup
threads
irrelevancy
>by
>humanity
>mankind
hypothetical
>affect
>apologize
syllable
collective,
descendant
ancestor?
>response
jim_brown@oz.bmd.trw.com
.a
posts
slip
couple
<1pj2b6$aaa@fido.asd
<1993apr3.033446.10669@bmerh85.bnr.ca>
dgraham@bmers30.bnr.ca
douglas
>|>er
ken
jew
survive
>|>that
nazi
rant
fellow
grant
explicity
accusation
sympathizing
exterminate
casually
trash
jewish
tacit
casual
anti-semitism
<1pint5$1l4@fido.asd
reputation
european
dislike
antisemitism
luther
racial
wagnmer
aesthetic
blankete
analysis
bigot
intriguing
remark
bite
anti-semitic
aesthetic?
<1993apr3.100039.15879@monu6.cc.monash.edu.au>
darice@yoyo.cc.monash.edu.au
fred
rice
<1p8ivt$cfj@fido.asd
skyscraper
next?
wtc
islamic
teachings
rushdie
insulting
implying.....
disingenuous
dishonest
dig
rushdie?
<114127@bu.edu>
jaeger@buphy.bu.edu
incorrect
saddam
>day
>communism
>atheism
lenin
>hard
look!
pun!
integral
million
socialism
lenin-stalin
centralization
distribution
rationing
bread?
>more
>one
>god
handbook_
xxvi.a.3
>someone
pay
life!
chuckle
snort
silliness
mayan
native
heck
signifigant
egyptian
_religion_
mythology
tolerant
nose
<1993apr3.183519.14721@proxima.alt.za
<1993apr5.112430.825@batman.bmd.trw.com>
tue
00
:49
:02
93
11:24:30
mst
subset
belong
logical...
mercede
girl
<930404.111651.1k0.rusnews
<1993apr2.065230.18676@blaze.cs
arromdee@jyusenkyou.cs
arromdee
non-driving
passenger
>pedestrians
transport
favour
ban
private
replace
bus
taxis
bicycle
cycle
damned
cretinous
driver
<930404.112127.2h6.rusnews
tax
minimize
eh?
posters
owner
<2942949719.2.p00261@psilink.com>
knowles
<p00261@psilink.com>
>>date
fri
23:02
:22
-0500
>>from
afghan
>>my
literal-minded
complaint
inspire
>>important
translator
>>scribes
interpreting
>>literally
corrupt
>>originally
comparison
>current
hebrew
>has
millennium
>shouldn't
suprising
>are
pain
tripe
utter
garbage
jw
mormon
anglican
orthodox
1804
brand
tongue
genesis
unrecognisable
discrepency
congenial
heading
jeff
cfaehl@vesta.unm.edu
faehl
obesity
>depression?
pick
correlation
generality
>people
>at
gross
oversimplification
push-pull
>experience
reckon
television
fundamentalism.
pre-marital
sex..
psychologist
streets
plot
complicate
panic
handle
soft
landing
>cfaehl@vesta.unm.edu
news-software
vnew
<1993apr3.195642.25261@njitgw.njit.edu>
dmu5391@hertz.njit.edu
david
utidjian
eng.sci.
<31mar199321091163@juliet.caltech.edu>
.answers
>utidjian@remarque.berkeley.edu
talk.origins
1938
nonetheless
'bimonthly'
'biweekly'
er
spring
forehead
athena
invent
laid
unthinking
knee-jerk
bigotry
pastor
striding
unprepared
bedrock
foundations
himmler
poster
suggest
anti-semitic?
israe
nazi?
qualify
up?
shine
cannot?
>everything
>mercedes
>therefore
car?
strick
premis
extract
with>>the
angel
>qpliu@princeton
delta-correlated
bobby-
lucifer?
experiment
warning
devout
offend
upset
...numerous
ctrl-l
...hehehe...
`fish'
volvo
morning
stolen
pagan
blisful
sigh
char
skinny
leg
tom
robbins
>50
appropriated
>followups
authorative
>craig
harding
kilroy@acme.gen
.nz
acme
bb
+64
3551342
"jub'er
lbh
pnyyvat
obmb?
craig-
acronym
iesus
christos
theos
ichthos
ichthysaurus
apology
dreadful
greek!
mean?
...]>one
minute
presume
concrete
hindpart
face?
like?
34
<1993apr5.091139.823@batman.bmd.trw.com>
<16ba5da01.i3150101@dbstu1.rz.tu-bs
.de>
i3150101@dbstu1.rz.tu-bs
.de
benedikt
rosenau
genetics
self-determined
dubious
parable
blah
thug
omc
'do
blasting
hell.'
'if
instruction
blasted
blast
hmm..
attractive
undesirable
threat
resume
qpliu@princeton
<kmr4.1433.734039535@po.cwru.edu
<1993apr5.163050.13308@wam.umd.edu>
<kmr4.1422.733983061@po.cwru.edu>
undisput
disputed
>fine
>dispute
concee
:-d
26
<1pik3i$1l4@fido.asd
<c4u51l.8bv@darkside.osrhe.uoknor.edu>
bil@okcforum.osrhe.edu
conner
incidental
trivial?
fess
>ask
mithra
funded
fanatics
mithras
>jon
jon!
well-funded
purge
access
skill
awakening
syllogism
>c
construction
>post
>jim
student
pretention
<c4iczs.6f@usenet.ucs
.indiana.edu
<1993mar31.234354.11694@rambo.atlanta.dg.com>
,<1993apr3.004902.25370@scic.intel.com>nntp-posting-host
15
<1993apr3.004902.25370@scic.intel.com>
sbradley@scic.intel.com
seth
bradley
inference
macroevolution
>fred
hoyle
astronomer
brace
repeatability
hurt
<1993apr2.155057.808@batman.bmd.trw.com>
baby
etc.
protein
>mutable
delv
>creationism
evolutionism
outline
latest
4.6
3.5
200,000
fossil
inidcate
evolving
disease-ridden
bone
we've
glean
>perfect
flaw
sidetrack
theological
so-called
a&e
>themselves
intimate
fellowship
addition
>sin
dominion
>dominion
earth..
[deletions
>since
feat
engineer
>diseases
bacterial/viral
>natural
selection
improve
survivability
>degeneration
offset
evolutionary
biologist
biology
'start
off'
adapt
envionment
degeneration
code'
complex"
accumulate
>affecting
well-being
>simpler
bacterium
virus
efficient
>causing
infection
umm
nah
adapting
percentage
microlife
harmful
reasonalby
constant
size
rank
bubonic
plague
nasty
pop
today..
damage
sanitation
symptom
severe
partly
susceptible
variant
'overgrazed'
doctor!
gath
acne
nastier
w/age
newborn
>diseases/disorders
inbuilt
abiliy
gift
survivor
immune
imperfect
presently?
planning
descendent
mystical/supernatural
>even
>disease
puzzle
'perfect'
'created
degrade
intervention
*not*
imho
masterpiece
gum
wrapper
elmer
glue?
'instructions'
'written'
apart?
*incapable*
summary
of.
nitpick
ray
ingle
ingles@engin
.umich.edu
michigan
galahad@leland
seventh
'life
science'
secret
amino
lab!
curl
helix!
wow!
>wow!
advanced
art
equipment
>*intelligence*
block
me!
simulate
tornado
tornadoe
intelligence
'state
*products*
23:32:28
<livesey@solntze.wpd.sgi.com>
>bad
b.m
defending
infidel
dare
sarcasm"
teflon
convenient
phase
moon?
cry
>>...god
malady
>>what
>>mutable
>>creationism
>>perfect
_should_
we?
biggest
imperfection
non-coding
region
intron
exon
impressive
domain
decrease
loss
ancestry
exon-intron
structure
insert
difficulty
splicing
mechanism
unuse
insertion
_precise_
tolerate
removal
self-splicing
mrna
conserve
transposition
site
duplication
recommend
textbook
molecular
watson
darnell
lodish
starter
newborns?
likewise
perspective
fulfil
criterion
misread
worse?
assertion?
parasite
simulation
tierra.
energy
x-ray
gamma
cosmic
thermal
mild
enzymatic
atmosphere
recollection
half
2.5
origination
estimate?
invoke
4.8
organic
stromatolite-like
layer
biochemistry
attend
>>dominion
>>diseases
>>natural
>>degeneration
_want_
reaction
far-fetched
jest
are?
spontaneously?!!!!!
_evidence_
spontaneous
_believe_
healthy
disbelieve
walk
prior
>>human
>>affecting
>>simpler
>>causing
>>we
>>diseases/disorders
manifest
replication
replicator
degradiation
replicate
opposite
bind
miserable
inconceivable
mankind?
pun
intended
where?
oversimplify
attendent
protect
allah?
bookstore
tea
china
answer?
endeavour
*how*
mover?
cosmological
hawking
insist
sage
motivate
nitty-gritty
picture
capable
adaptation
supreme
p.w
atkins
revisit
freeman
petri
pihko
kem-pmp@
mathematics
pihatie
finou.oulu.fi
sf-90650
oulu
kempmp@
finland
phoenix.oulu.fi
<1993apr5.091258.11830@monu6.cc.monash.edu.au>
>darice@yoyo.cc.monash.edu.au
>>(2
islam?
>>people
>>souls
>>muslims
era
>>holding
>>confusing
>caliphate
caliphate
reference?
ali
shias
whatsoever
fritter
wealth
disobey
pity
carnal
stake
enjoy
anxiety
virtious
libertine
whore
deprive
charm
untaint
vice
miscreant
complain
oppress
oath
solicitation
ardent
emerge
victorious
deed
preserve
mas'ud
al-qanawi
ref
bouhdiba
sexuality
118
exemplary
cousin
fourth
khalif
hazret-i
frustrating
night
selim
guncer
jaca
negra
luna
grande
csser-asu
aceituna
en
mi
alforja
602)-965-4096
aunque
sepa
los
caminos
guncer@enuxha.eas
.asu.edu
yo
nunca
llegare
cordoba
<1993apr5.023044.19580@ultb.isc.rit.edu>
feminist
mentally
hoax
civilised
feeble
talent
print
computer/terminal
keyboard
stuff.
jenkins
graham.jenkins@its
.csiro.au
<c51daq.2fqs@austin
1000
sightseeing
roam
palastinian
land
israeli
<p00168@psilink.com>
massive
consistency
<1993apr6.030734.28563@ennews
.eas
.asu.edu>
<1993apr2.144909.806@batman.bmd.trw.com>
<1993apr2.165032.3356@bradford.ac.uk>
l.newnham@bradford.ac.uk
leonard
newnham
>>...argument
incredulity
medieval
>interesting
>they
'cannot
gracious
>suffering
earth.'
>envision
>incredulity
is!
*besides*
...nor
offer
convincing
unreasonable
purported
non-action
fix
>very
im
universal
bane
wit
inept
opponents
oneself
snide
'strawmen'.
wisdom
log
>try
splinter
neighbor
raymond
>>>perhaps
>>>instead
>>>implanted
>>why
>>potential
>*before*
treat
impropriety
wearer
permanent
bugging
potential
surface
defy
conducive
surveillance
recidivism
offender
deterrant
rehabilitation
<65934@mimsy.umd.edu>mangoe@cs
]the
]current
]has
]shouldn't
]are
mate
]c
strife
sod
]mangoe@cs
]tove!mangoe
marv'lous
burke
jdb1145@summa.tamu.edu
:11:49
<karner@austin
indonesian
handbook
repost
<chrisb.734068710@baarnie>
chrisb@tafe.sa.edu.au
bell
lippard@ccit.arizona.edu
dept
lippard@arizvms
.bitnet
<suopanki.93apr6024902@stekt6.oulu.fi
<kmr4.1444.734058912@po.cwru.edu>lines
<kmr4.1444.734058912@po.cwru.edu>
<suopanki.93apr6024902@stekt6.oulu.fi>
suopanki@stekt6.oulu.fi
heikki
suopankus
translate
identity
predication
predicate
designate
ej
symbolize
<chrisb.734064380@baarnie>
>jbrown@batman.bmd.trw.com
>>c
>>therefore
>>this
>>your
is"
valid--whether
individual.
roger
colin
shouse
radical
twenty
muddleheaded
fourth-
>reich-sophistique
shit
reproduce
weasel
>shouse
krieger?
dispassionate
>(1
combat
clone
>get
office
>(2
insight
abnormal
psych
ward
overcome
repugnance
uncalled
homosexual
constitute
morally
straight"
meaningless
apple
race
issue?
wolf
adhering
suggestion
unix
laboratory
employment
summit
nj
smk@usl.com
65934@mimsy.umd.edu
:pnanci
:p
:p>my
:p>that
:p>important
:p>scribes
:p>literally
:p>originally
:pthe
:pcurrent
:phas
:pshouldn't
:pare
400
merchant
ie-owe
owe
plagerize
sp
asian
interperate
trivia
:p>but
:p>it
matters
:p>when
enforce
:p>fact
:p>from
presidential
candidate
:p>shouldn't
patriotic
:p>all
:p>party
president
:p>america
:p>et
cetera.........
subscribe
:p>and
:p>alt
concoct
:p>straw-man
:p>you
:p>this
:p>told
embrace
:p>islam
krishna
:p>the
nut
militant
:p>christian
:p>kind
talk.religion
.misc
:p>atheism
:p>
:p>do
:p>>
:p>>bill
:pfirst
beilief
:pbecause
ador
:pfaith
:pfundamental
:pmention
madamme
murry
o'hare(founder
:pof
texas
sherman(from
chicago
rid
paint
chistma
city
town
seal
sherman
slogan
currency?
tha
:phave
evidece
:pdon't
inforce
:pmark
covalt
asiatic
ego-centric
over-rated
atf
koresh
ascention
heaven?
hopkins
medical
backing
group...thus
evans
mood
...sure
sex...*ever!*
concordance
authoritative
commentary
>available?
>moderate
>how
interpretation?
hmmmmmmmmmmmm............................................
moslems
quran
soc.culture
zillions
killings
iran-iraq
1,000,000
sudan
riot
india-pakistan
1947
massacare
bangladesh
1971
inquistion
1500
x=??
crusade
snm6394@ultb.isc.rit.ed
validity
utilitarian
atheism/religion
underlie
`moral'
`wrong'
epistemology
richard@harlequin
internet
rptb1@uk.ac.cambridge.phoenix
zazen@austin
.ibm.co
welbon
doubt>>>that
>>>what
>>>atheist
>>invisible
>...i
>existing
secondary
epistemological
empirical
theologian
"on
rejects
defensible
sceptic
easter
bunny?
nye
nyeda@cnsvax.uwec.edu
midelfort
clinic
eau
claire
philosoph
frighten
>>>no
tax-exempt
>>other
beef
have?
lobby
>encompasses
>organizations
lobbying
>let
>knowledgeably
immerse
objectively
threaten
tool
axis
misuse
>use
>order
diffcult
>yourself
>judge
>death
expose
route
religion--might
rigorous
>spending
>believes
>ks>do
>ks>of
>ks>distinguishes
>mw>no
>ks>well
gather
>recognize
dominant
>think
infringe
>their
realize/recognize
>like
>concern
>ks>since
christmas
>ks>anymore
u.s
>associate
anymore?
prominent
holiday
him?
*do*
>anyways
>christmas
asymptotical
>however
>opt
>secondly
safe
>innocent
>do
non-fatal
refined--over
soldier
dependent
cocaine
paying
coca
cocaine?
>>many
propogandize
conflict
impression
contintue
'many'
>'probably'
vs.
winner
>tell
groundless
prediction
propoganda
wwii
shoudl
slaughter
machine
roll
whip
frenzy
gear
>>abortion
amendment
>intense
scrutiny
>prime
yep
sooo
managed
manage
they'd
>>>>besides
margin
>>>better
>>>out
informal
said?
unbiase
>them
>regret
>out
pillage
room
nation?
>expressed
disgust
harass
minor
contrast
*could*
>>which
motto?
>>jesus
*only*
>christians
>all
'include'
correct?
francis
key
despise
>>>that
query
faiths?
awful
>suppose
hindu
moselem
representation
dissent
>>given
>>leads
>without
>opinions
_congressional
1950
>comparing
nazis?
>>>>no
>>>>if
abolish
we'd
>>>>plates
redone
>>>like
>>you
th3
plate
printing
>claim
evident
redesign
year?
>>concerning
distinction
>refers
non-religion
ussr
>>about
>>in
>written
flat-earther
banishment
incur
insignificant
>disregarding
motto...if
>harassment
outweigh
was?
>>think
>>atheists
>again
>concerned
>shared
'godless
communism'
anti-atheist
daresay
anthem
surround
einstein
relativity
worthy?
>method
apply
'good
>>what?
>>congress
flag
burning
confident
*anything*
>>how
participate
court?
>abortion
gag
inappropriate
constitutional
>>mushrooms
flower
>>doesn't
keith...not
mushroom
>finding
farm
pizza
harassment
>only
>along
there?
phrasing
ambiguous
re-writ
piece
deduction
irony
rapist?
sentient
pool
dolphin
pushing
aggressive
well-developed
capacity
abstract
provoke
provocation
zyklon-b
painless
soem
ethnic
mutilated
holocost
constitution?
recieve
trial
japanese
round
concentration
trial"
gas
dreamt
afford
devastation
goer
malnutrition
<ii1i2b1w165w@mantis
tony
lezard
<tony@mantis
>belief
>care
comment?
artifact
conceived
vanishing
introduce
mandtbacka@finabo.abo.fi
mats
andtbacka
hinge
modify
5-apr-93
clarify
belief"
tony@mantis
tony%mantis
.co.uk@uknet.ac.uk
tony%uk.co.mantis@uk.ac.nsfnet-relay
arl10@phx.cam.ac.uk
tail-recursive
scheme
iterative
assembler
optimize
compiler
<114127@bu.edu
[deletia
chop
theft
arabia
fitting
requirement
off?
succeed
disclaimer?
insane!
self-determination
representative
paragraph
hop
anyway..
strike
self-contradicting
fable
rcism
opportunity
tempter
after-the-fact
rationalisation
identical
tight
roman
catholic..
fall?
time?
lucio
lucio@proxima.alt.za
tab
>outnumbered
repudiate
continual
arse
grey
unattainable
wish!
_logically_
faulty
generic
unassailable
_real_god_
undefinable
watertight
fuzzy
edge
bskendig@netcom.com
kendig
list?
mail-server@mantis
credit
incomplete
legitimate?
border
manifestation
hack
nasa
ames
lab
authority
prosecute
automatic
holland
anti-cracking
legislation
hacker
haven
administrator
broadcasting
pornographic
denmark
powerless
spite
law-breaking
lawyer
confusing
<114140@bu.edu>jaeger@buphy.bu.edu
prostitution
>>>>>both
prostitute
>>>>>severely
lenient
>>unless
>>matters
>power
>five
head
leniency
internalize
law?
>>while
customer
>>have
>>violation
>>another
pointer
hysteria
>>religions
ridden
oriental
goatherd
>ah
>neurosis
>"oriental
goatherd"
_really_
memory
machism
orient
clue
detrimental
supress
>>are
>huh?
bla
urge
fear
channel
forbid
suppressing
counterfactual
<1993apr05.174537.14962@watson
.ibm.com>strom@watson
<16ba7f16c.i3150101@dbstu1.rz.tu-bs
messianic
jew"
.,messianic
nntp-posting-host
dsi.dsinc.com
<1993apr3.221101.25314@midway.uchicago.edu>
shou@midway.uchicago.edu
<1pi0dhinn8ub@dsi.dsinc.com>
perry@dsinc.com
perry
>>bigots
concede
irrational
>no!
it!
>world
whomever
>comfortable
you--imagine
entertain
>making
vituperation
slop
venom
exposure
understood
prejudice
inconsequential
orientation
pend
exclude
discriminatory
inc.
matthews
nc
nominal
fee
<1pq47tinn8lp@senator-bedfellow.mit.edu>bobs@thnext.mit.ed
>know
>(weak
>after
>"existence
>being
>exist
>statement
>'usual
>god"
indubitable
follow?
aren't
level?
fray
patented
5-on-1ping-pong
disagreement
"enlightened
closer
summarize
<1993apr03.001125.23294@watson
}in
<1phpe1inn8g6@dsi.dsinc.com>
}disclaimer
}where
}and
}raw
community
crux
cultural
correspond
}but
}shouldn't
}use
scissor
}test
paper-cutting
}scissors
cloth?
highly-interpreted
scissor-maker
cloth
disgusting
depicted
abuse
contemporaries--or
*less*
contemporaries
benign
mythic
condemnation
>>>as
>>case
hypnotize
>something
finger
load
mousetrap
snap
priceles
flick
speed
pile
hilarious
arrived
betcha
assure
pearl
keith?
stuff?
#1
reason?
#2
contradictory
#3
islamical
mmmmm
*and*
voice
pbuh
<1993apr2.082500.28753@smds
.co
rh@smds
protist
multip
>nuclear
>cells
indignant
>straight
confuse
ciliate
macronucleus
micronucleus
mitosis
meiosis
center
unrelated
euglenoid
dinoflagellate
condense
chromosome
unwind
>richard
harter
smds
phone
508-369-7398
>us
po
555
concord
ma
01742
508-369-8272
grass
grave
dream
joseph
boxhorn
jboxhorn@csd4.csd
.uwm.edu
<1993apr6.041343.24997@cbnewsl.cb.att
>clearly
>specifically
hetersexual
slang
alot
misterious
>roger
terrify
indoctrinate
lifestyle
calm
carefully-written
inflammatory
indefensible
>trying
>control
blanket
tim
pierce
?usted
es
la
tele
!la
madre
twpierce@unix.amherst
del
asesino!
!ay
graciosa!
<1p387f$jh3@fido.asd
.sgi.com
<1993mar29.010116.18203@watson
<16ba0d964.i3150101@dbstu1.rz.tu-bs
<1993apr01.184110.33851@watson
<16ba4adac.i3150101@dbstu1.rz.tu-bs
<1993apr03.012536.18323@watson
<16ba6c534.i3150101@dbstu1.rz.tu-bs
<1993apr04.225107.39364@watson
braunschweig
154
initiate
<8feu_ko00xsf0kpc5p@andrew.cmu.edu>
<bluelobster+@cmu.edu>
allowable
prisoner
knowledgable
narrow
metaphysics
distinct
christianic
no-no
commandment
accessible
update
transcendent
metaphysic
specualtion
shackle
>could
>wait
her?
invalidate
command
reprehensible
repulsive
foul
relative
enlightened
loose
>based
scholar
>charity
sodom
gomorrha
theo-
riddle!
communicate
unusual?
referring
crap?
"riddle
witrh
arbitrary.
convey
becuase
peculiar
place?
somehow?
bargain
dangerous
metapher
bible?
>danger
freeze
>read
body
corporeal
idolater
<epvk2b3w165w@mantis
.co.uk>tony
>pointed
meaningles
ontology
<1993mar31.013034.27070@ultb.isc.rit.edu>
>believing
>lack
belief-
moslem
follower
>30,000
victims
poverty
>such
low
distrust
>wrong
>peace
jerk
>bobby
sami
aario
atom?
explode
a137490@cc.tut.fi
sunlight
comprise
stupid
stupid!
eros
outer
<1993apr2.190122.26169@radian
.uucp>
markbr%radian@natinst.com
markbr
pride
>stupidity
*shown*
*demand*
<etc.....>
ahhhhh
*is*
error/fault/misunderstanding
aplenty
*between*
thickheaded
drag
trait
woodbury
den
durham
affiliate
wolfe@wolves
.durham.nc.us
duke
idiots!
...!duke!wolves!wolfe
<standard
apply>
celebrate!
--celebrate
circle
mark-jason
dominus
>"mind
fucking
*everyone
's*
interest?
semi
glorious
maryland
song
abraham
lincoln
tyrant
wound
calvert
fatti
maschii
parole
femine
italian
manly
gentle
tove!mangoe
lousy
group.-
amend
plain
failure
objectivist
pair
bluejean
powers
college
jeans
coherency
sic
>mean
>many
>jesus
extradinary
virgin
intercourse
resurection
>son
evidence?
all?
cynic
risen
discount
dismiss
relationship
else--
*means*
extraordinary
*any*
>flavours
loudly
*don't*
[claim
christian"
is/is
ownership
nicene
jws
espouse
arianism
virtual
>considered
matt
./luke
>explanation
q"
grating
inconsistency
geneology
grateful
>>unfortunately
>>'70s
>putting
gap
quit
>>cannot
>>information
>together
impress
if"
authentic
reporter
participant
divinity
section
epistles
predate
revelation
engagement
contradictive
conceptualization
quantum
mechanics
understanding
charitable
analogous
>that?
context--
reliability
<1993apr6.013657.5691@cnsvax.uwec.edu>
expand
monolithic
french
jerry
lewis
auteur
socrate
bertrand
russell
epigraph
uunet!olivea!sgigate!sgiblab!adagio.panasonic.com!nntp-server.caltech.edu!keith
bobbe@vice.ico.tek.co
singled
with?
}>for
periodic
}>mythical
propound
enthusiastical
}>when
month
reluctance
}>that
}i've
}might
}is
}solve
prejudgment
inapplicable
defense
discard
repeated
unfounded
<66014@mimsy.umd.edu>
>benedikt
ah
paraphrase
'thi
grab
schmuck
dictation
hide
years'.
element
mutual
concluding
absent
'revelation'
>conceptualization
>perspective
accountable
mistake?
meek
*have*
stars
<1993apr3.081052.11292@monu6.cc.monash.edu.au>
>[deleted
nutshell
extra-marital
partnership
divorce
trauma
stable
>marriage
foist
spouse
>business
witnessed
stressful
>adults
>understand
steady
climb
detect
revolution
weakening
consequent
proposal
plausible
_plausible_
contribution
simplistic
destabilization
rise
>cfaehl@vesta.unm.ed
>>depression?
>>at
>>experience
>basically
>panic
>things
>due
_never_
_solely_
>darice@yoyo.cc.monash.edu.a
>>does
permit
>>woman
temporarily
pregnancy
>>allowed
sexist
>>support
exasperating..
racialism
>discrimination
discrimination
denying
maternity
>pregnancy
father
>leave
okay..
3-4
physiological
brainsex
anne
moir
jessel
overview
different!!!!!
_naive_
oppression
extent
_wants
brainsex"
fallaciou
biological
women!
womb
wrap
fallacious
privilege
legally
inferiority
>islam
exceptional
>caste
subjugate
aspiration
>rights
entitled
priesthood
widow
aisha
sweet
coat
>female
procreate
self-improvement
>access
facility
news-site
soc.religion
.islam
disappear
forgot
title
blatant
culprit
istitutionalise
celibate
clergy
>role
bearer
wrath
descend
affirmation
aspire
khomeinus
artificial
leader
>show
hillary
rhodam-clinton
wife
hijra
journey
mecca
medina
businesswoman
<1993apr3.081052.11292@monu6.cc.monash.edu.au
pros
cons
>>marriage
lasting
>>between
secure
>>environment
>(deletion
homosexuality
<66019@mimsy.umd.edu>
>"contradictory
>description
euclidean
satisfy
measn
circle-square
'bicycle'
>(i'm
kidding
>(keith?
misplaced
replenish
freewill
>true
nonexistance
wormwood.engin
<c4vwn0.jf5@darkside.osrhe.uoknor.edu>
>c.wainwright
eczcaw@mips
.nott
.ac.uk
*every*
children?
hmm...no
overpopulate
monty
python
sperm
sacred
growth
arguement
>consider
>species
oh?
insect
ant
bee
breeding
queen
passel
sterile
worker
huh?
ain't
true!
&c
akin
unnatural
>yet
non-sequitur
procreation
recreation
>homosexuals
-only-
>nothing
-evolutionary-
bonobos
primate
closeley
chimpanzee
heterosexual
prdator
reproduction
indication
*impossible*
yesterday
kurt
vonnegut
hamps
isaac
asimov
honorary?
funeral
stood
now,
ignite
uproarious
laughter
humanists
lecture
humorist
muslim"
>general
>outwardly
>muslim
transgress
>principles
sit
'zlumber
muslin
athiesm
straight????
>2
pertain
typing
practice?
>name
>bill
<jvigneau.93apr5182106@cs
.ulowell.edu
jvigneau@cs
vigneau
>before
>taught
testimonial
1960
hijack
reminds
fighting
cautionary
publicize
leak
gestapo
<1pq63o$n7t@access
.digex.net
>}herb
>}fair
>}rapidly
>}that
>non-cannibalistic?
ritualize
162
c.wainwright
homophobe
rally
beleive
latent
hostility
conceal
disapprove
condemn
bisexual
'phobe
phobia
meeting
wouldst
thou
bilespeak?
arachnophobe
spider?
agoraphobe
space?
english?
react
gaybashing
definate
homophobia
violence
parenthetical
traits
deadend
offspring
participation
humankind
abberation
vanished
*years*
non-procreation
cold
cos
-prefer-
eschew
imperative
admittedly
no-one
pleasure
pre-pill
pre-condom
closet
maker
life-style
perverse
fancy
date?
dodge
obligate
statement?
telling
lifestlye
homophobic
compel
compelling
legitimization
intimidate
demogoguery
persuasive
outdated
spawn
damnation?
crush
penis
deuteronomy
disguise
out-dated
otherwise?
reactionary
contribute?
deviate
incumbent
ensure
*anyone*
normal
hat
puma
baseball
cap
meat
poison
intelligible
]>a
glass
teacher
flow
b^
supercooled
fluid
temperature
container"
uunet!tektronix!sail!mikec
m.cranford
uunet!tektronix!sail.labs.tek.com!mikec
troll
arpa
mikec%sail.labs.tek.com@relay.cs
.net
resident
skeptic
csnet
mikec@sail.labs.tek.com
wild
fanciful
headed
leapard
bed
leotard!
>proposition
irrelevent
-is-
>be?
miriad
fussr
comrade
eyebrow
strength
relevent
irrelvent
electro-magnetic
attraction
charged
particle
inverse
proportional
cube
distance
disproof
incongruency
theorize
self-contradiction
affiar
truth"
inserting
exclusive
recourse
divnity
>physics
>determnined
abolishment
elimination
existance
eliminate
mortal
howland.reston
.ans
.net!europa.eng.gtefsd.com!uunet!mcsun!germany.eu.net!news
.dfn
.de!tubsibr!dbstu1.rz.tu-bs
.de!i3150101
<66015@mimsy.umd.edu
>ever
>anyone
>these
discredit
spook
resurrection
filtering
>speaker
ipus
subtract
>1
universe'
>3
>about
corrallary
negation
contridict
fabric
infinitely
benevolent
measurement
<66019@mimsy.umd.edu>mangoe@cs
modelling
<114133@bu.edu
<1phkf7inn86p@dsi.dsinc.com>
>>}rushdie
>>}the
preclude
>>rushdie
>>his
tsv
>>february
1989.[
_is_
explicit
renounce
>explicitly
>intellectual
*i
muslim*.[
apostacy
affirm
apostasize
'there
coercion
religion'
horrify
*purely
birth*
salman
paradise
vanish
fifteenth
abrupt
...]and
newfound
buy
tasteless
ham
sandwich
partook
forbidden
flesh
swine
thunderbolt
wholly
seculat
trust"
1985
>>[i
affair
>>khomeini
moderate
participated
>>refused
witch-hunt
khomenei
>irrelevant
>false
fiction?
functional
conception
mob
pakistan
fictional
demented
imagination
reflection
mahound/mohammed
lewd
misrepresentation
>few
rush
fool
>his
verses_
apostate
blasphemer
propagandistic
*one
muslim*
newsweek
impart
factual
misstatement
>reasons
>satanic
>penguin
rafiq
zakariyah
_mohammad
quran_
counter-proposal
viking
<1993apr2.115300.803@batman.bmd.trw.com>
<c4twso.8m2@hq.ileaf.com>
mukesh@hq.ileaf.com
mukesh
prasad
<1993apr1.142854.794@batman.bmd.trw.com>
<1p8v1ainn9e9@matt.ksu.ksu.edu>
strat@matt.ksu.ksu.edu
steve
davis
bothered
omniscient?
trick
'all-knowing'
self-contradictary
who/what
celebrate
glorify
whys
wherefore
greatness
exalt
bow
devote
yeah
snake
...had
kick
fruit
...well
sex->depression
decline
depression->promiscuity
emotional
bond
commitment
devotion
married
<66014@mimsy.umd.edu>mangoe@cs
too?
qm
hassle
flourish
verify
falsify
bogu
>>that?
acheive
sat
10:00
:39
<darice@yoyo.cc.monash.edu.au
>>>should
>>(1
>>[wtc
trade
centre
>>think.
>>okay..
>>remember?
hole
van
>>blow
deposit
>>afterwards
incredible
salamen
uneducated
>>nevertheless
>>apparently
smart
sophisticated
bomb
salameh
chemical
allied
signal
>explosive
_over
phone_
>>despite
>>already
mosque
>>united
>o.k.
houston
conspiracy
desert
storm
>venture
quiet
now?
localized
jersey
australian
weekly
harming
>>contradiction
>following
koran
>(if
>allow
idolator
>says
>harming
>happens
consequence?
>down
alleged
hip
>trials
>"my
>set
sir
>allah
>great
thrust
_because_
_in
of_
to_
outward
mu'min"
believer"
mu'min
.umd.e
>>david
wood
high-falutin'
meta-argument
historical
accuracy..
>complain
kindness
not!
so!
incongruenty
stance?
>>opinion
state?
said"
>"did
text"
entry
bloody
re-post
trail
>>argument
disproven
non-applicable
up-
>speaking
sauce
goose
>over
.net!europa.eng.gtefsd.com!fs7.ece.cmu.edu!news
.sei.cmu.edu!dpw
#5
addendum
summarizing
to-date
specious
bore
juvenile
crack
intransigence
dishonesty
substantive
submit
afoul
concise
re-statement
procedure
missed
rescind
neat
pattern
semi-retracting
stereotype?
>whether
*mean*
>repeatedly
*do
not*
>patterns
theorize?
umbrage
by"
pressed
>>revelation
>>reasoning
>perceived
reveal
>divine
>communicated
>interpret
sensing
interface
>interpreted
>truth
>share
>>>you
>>>our
>>again
>>few
mystic
>>redefining
absorb
mystical
>>begs
testimony
unreliable
taint
thingy
>me
>interpretation
capability
reiterate
>experiences
>point
>revelation
>record
>*what*
sensed
>*how*
heart
>can't
unverifiable
fantastical
fantastical?
sensitive
intelligent
>>posting
>>likewise
>>claims
>>dispassionate
>give
>failing
>sense
retract
>pattern
asshole
axioms
effect?
axiom
>>...we
>>based
[second
>>...but
>>an
150
>>or
>>screen
practicality
await
anticipation
--dave
p.s.
3/18/93
>>incoherence
3/31/93
>>mr
gauntlet
>>respond
>>nothing
screen
>>morality
>>utmost
>>(meta-arguments
4/3/93
>>"did
>>with
sgiblab!adagio.panasonic.com!nntp-server.caltech.edu!keith
<1p9bseinni6o@gap.caltech.edu>
<1pamva$b6j@fido.asd
<1pcq4pinnqp1@gap.caltech.edu>
<30071@ursa.bear.com>lines
22
halat@pooh.bears
halat
flavor
approximations
mind--that
>maybe
>morality
oxymoron
_goal_
revision
complicated
jungle
self-actualization
judging
you.
tangential
ingor
themselve
re-posting
unmistakable
net.theist
tactic
explict
announce
--or--
humiliate
honesty
nevermind
rhetorical
<66020@mimsy.umd.edu>mangoe@cs
>assuming
>exactly
>any
>jesus'
logion
>>explanation
>>their
>independently
>>for
>>>unfortunately
>>>'70s
>>putting
>copy
>>together
>pointing
>authentic
authencity
>>one
reporting
>agreed
accuracy
<16ba8c4ac.i3150101@dbstu1.rz.tu-bs
<1pq47tinn8lp@senator-bedfellow.mit.edu>
>saying
>position
>faith
there....
skeptical
argumentation
neutrino
naive
ancestor
anscestory
zebra
correspondence
profound
misunderstand
offering
btw
infer
'god
is'
throat
joel
hanes
jjh00@diag.amdahl.com
connor
lineage
cave
kiwi
bird
wing
illustrative
inescapable
anthrpomorphic
desciption
teleological
monotheism
socrates
acuuracy
nt
-cannot-
enlighten
exist!
pre-existant
prudenti@juncol.juniata.ed
arrive
mary...had
mary
highly-religious
impregnate
...no
know!
thougt
lord
straight!
lexus
se400
wipe
rain-slick
curve
1997
flu
1994
visit
shop
remind
inquisition
operation
rescue
ku
klux
klan
posse
comitatus
club
salem
witch
bashing
carnage
chaplain
ordeal
troops!
tediou
malefactor
-really-
accomplish
}xenophobia
*de
facto*
jure*
}although
100
egalitarian
preach
}kindness
stranger
emphasize
}of
ruth
foreigner
}give
determnin
acquire
naturalistic
-about-
training
reside
electrical
hill
value?
ennumerate
impute
reliogious
purpose?
-anyone-
-meaning-
gradation
-any-
judgement
preface
nervous
pre-existing
thought-set
-seem-
landscape
illusion
non-significance
goood
wha
<1993apr5.091258.11830@monu6.cc.monash.edu.au
>>>>of
>>>>is
>>>>religion
>>>>within
converge
>>>>the
>>>my
meantime
split
>>>diverge
'true
>>>above
inhumane
>>>usually
>got
>converge
>tolerant
ideology
>(big
>>anyhow
>>"for
patient
fast
guard
chastity
praise
reward
>>[qur'an
33:35
abdullah
yusuf
>>men
>priority
forgiven?
after-life
_what_
priority
_whole_
disbeliever
>slavery
iit
sequitur
fashion
forgiven
misinterpret
misinterpretation
twist
bernard
lewi
zionist
misrepresent
orientalism
edward
treatment
slavery
east"
liberation
slave
>deduce
>abolished
half-truth
encyclopaedic
>dates
1200
muham
tension
ottoman
empire
arab
trader
asu
>concerning
>checked
incident
>ones
documentary
general_
writer
anti-islamic
polemic
urging
well-known
book)
_yourself_
concubine
>incident
advise
>want
>words
baseless
hadith
reality_
unsuccesful
advocating
>7th
freed
>deeds
>good
rightful
>politically
rewards
>master
>understandable
rule-based
quo
>slaves
subordination
boil
child-making
_us_
_you_
anti-woman
women"
sad
deficient
_my_
numerous
qur'anic
standpoint
automatical
sunnah?
no!
proceed
bottle
beer
beer?
author/authors
socio-economic
>structure
paradigm
>shifts
1400
feudal
commerce
industrial
>revolution
misery
heathen
>accumulate
uncomprimising
>rules
pyramid
conquer
capitalist
capitalism
maximize
free-market
bare
emperialist
devour
industry
>level
health
>statistics
postulate
secularist
foremost
anti-education
knowledgeable
>facts
utopia
forefront
_your_
anti-historical
overlook
>while
>cut
reverse
1300
till
slow
_reading_
<1993apr3.071823.13253@bmerh85.bnr.ca>
>ken
sightsee
2000
palestinian
retrospect
poetic
license
understandable
#before
#do
homework
unnecessary
>were
>street
>acceptable
>don't
exhibit
speech
flip
stifle
legitimate
israel
outta
<19930315114603@mantis
733
atheism/faq
1.1
frequently-asked
covered
definitive
newsgroup?
atheist!
pascal
wager
occam
razor?
dice
causeless
godel
theorem
bush
patriotism
organize
groups?
discuss?
feign
upsetting
trading
overt
'stay
closet'
unwanted
proselytizer
attract
preached
tearing
ill-considered
uninformed
did!
adolf
emphatical
folkish-minded
denomination
_people_stop_just_talking_
superficially_of_god
's_will,_and_actually_fulfill_god
's_will,_and_
not_let_god
's_word_be_desecrated
._[orig
ital.
declaring
confines
butt
accordance
almighty
_by_defending_myself_against_the_jew,_i_am_
fighting_for_the_work_of_the_lord
mein
kampf"
trans
ralph
mannheim
questionable
recording
oral
'truth'
legitimacy
'means'
feeling
remarkable
foolishness
comparable
intellectually
intuition
cost-benefit
consist
beneficial
cost"
collapse
vacuous
tautology
spurn
razor
william
solution"
intricate
non-zero
solipsism
preaching
theme
favourite
you!
lengthy
abduct
ufos
ghost
elvis
albert
cleverer
refusal
uncertainty
spinoza
orderly
harmony
symposium"
conference
relation
democratic
1941
imbue
regularity
*refuted*
italic
refuge
unworthy
dark
necessity
struggle
stature
labor
avail
cultivate
incomparable
worthy
religous
systematic
unbounded
admiration
helen
duka
banesh
hoffman
princeton
book:
immortality
ethic
worships
polytheist
atheists'
theists'
chain
chance?
insufficient
improbable
chaos
deliberately
immeasurable
creator?"
spiralling
improbability
was"
creator?
watchmaker
beach
reactor
multitude
randomness
confirm
josephus
extant
copyist
reconstruction
ecclesiastical
eusebius
320
c.e.
worthless
deliberate
falsification
wily
acknowledge
dishon
historian
antiquity.'
authorship
biographical
well-documented
consult
.christian
expressive
arithmetic
expression
'true'
'false'
technically
string
system.
liar
paradox
english
undecidable
isolation
abstraction
airport
august
27
accredit
invitation
republican
nominee
federal
relief
rs
win
gb
surely
citizenship
patriot
church?
upi
8
angry
boulder
daily
camera
monday
enquiry
16
october
29
confrontation
ed
murnane
cochairman
bush-quayle
'88
lawsuit
consolidated
district
first-grade
son
pledge
filing
em
bullshit?
election
21st
boyden
gray
counsel
stationery
veteran
norway
mildly
hearing
detailing
founding
establishment
erect
tyranny
ruin
upholding
throne
ruler
subvert
established
auxiliary
institute
perpetuate
memorial
remonstrance
1785
shudder
alluding
preserved--the
cross
calamity
engine
jefferson
furnish
priest-ridden
baron
von
humboldt
1813
benjamin
franklin
nov
1728
washington
religion?
xi
1797
treaty
tripoli
stat
358)
enmity
tranquility
musselmen
mehomitan
pretext
arise
interruption
congressional
collection
charles
bevans'
international
agreement
1776-1949
vol
1070-1080
senate
june
ratify
10
arabic
altogether
barlow
consul
algiers
opponent
1806
<19930322114724@mantis
632
atheism/logic
1.4
usenet
oed
analyze
helpful
analyse
raining
tuesday
arrangement
sketch
proposition"
suspicion
suspicious
afray
denote
that"
shower
conditional
we'll
causality
b"
interested
deductive
counter-intuitive
woodlouse
woodlice
a=>b
linguistics
pitfall
aim
mislead
argumentum
baculum
arguer
politician
right"
ample
burn
hominem
man"
abusive
goodness
perjurer
ignorantiam
circumstantial
leather
shoe
allege
adversary
rationalize
well"
ignorantium
telepathy
psychic
investigation
flood
enormous
tenth
ice
pole
misericordiam
pleading
axe
orphan
populum
gallery
emotive
pornography
numeram
verecundiam
newton
genius
radiation
searle
physicist
inform
linguist
well-qualified
moralist
legalist
mechanically
converse
hasty
bakker
dicto
simpliciter
feature
render
causa
hoc
propter
aspirin
headache
cured
headache.
cum
causal
petitio
principii
circulus
demonstrando
rephrase
blackmail
services'
employee
interrogation
presupposition
beat
wife?
presuppose
cross-examination
stole?
ec
interference
continue?
chancellor
ruinous
privatization
ignoratio
elenchus
undoubtable
arouse
emotion
favourable
equivocation
affordable
software?
redistributable
amphiboly
careles
ungrammatical
accent
alter
composition
mass
component
lightweight
petrol
pollution
damaging
rich
slope
legalize
marijuana
heroin
drug-addict
welfare
faith?
cat
carbon
dog
cat?
antecedent
falseness
a"
antiquitam
novitam
crumenam
lazarum
sounder
virtuous
wealthier
nauseam
nauseum
repetition
bifurcation
plurium
interrogationum
questioner
herring
divert
reification
hypostatization
knock
misrepresented
demolish
anti-cryptography
breaking
odious
luth
cryptography
liberation?
tu
quoque
<19930413094109@mantis
145
atheism/overview
regular
'controversial'
mis-statement
misconception
optional
.announce.newusers
primer
hint
.newusers
.questions
assistance
kck+@cs
.cmu.edu
karl
kluge
netoprwa@ncsuvm.cc.ncsu.edu
wayne
aiken
chpetk@gdr.bath.ac.uk
toby
kelsey
jkp@cs
.hut.fi
jyrki
kuoppala
geoff.arnold@east
.sun
geoff
arnold
torkel@sics
.se
torkel
franzen
kmldorf@utdallas.edu
kimeldorf
roe2@quads
.uchicago.edu
greg
roelofs
j5j@psuvm.psu.edu
johnson
mayne@open
.cs
.fsu.edu
mayne
ajr@bigbird
.hri.com
rosen
stoesser@ira.uka.de
achim
stoesser
bosullvn@unix1.tcd.ie
bryan
'sullivan
s1b3832@rigel.tamu.edu
baum
ydobyns@phoenix.princeton
dobyns
schroede@sdsc.edu
schroeder
baldwin@csservera.usna.navy.mil
j.d
baldwin
d_nibby@unhh.unh.edu
nibby
dempsey@kodak.com
dempsey
jmunch@hertz,elee.calpoly.edu
munch
pdc@dcs
crowley
rz@mips.complang.tuwien
.ac.at
zach
tycchow@math.mit.edu
chow
...and
countless
forgotten
distribute
correction
float
network
*should*
anonymous
ftp
rtfm.mit.edu
18.172.1.27
directory
/pub/usenet/alt
copying
networked
mail-server@rtfm.mit.edu
usenet/news
.answers/ftp-list/faq
.answers/finding-sources
usenet/alt
.atheism/faq
.atheism/logic
.atheism/resources
penultimate
atheism/faq/faq.txt
atheism/faq/logic.txt
atheism/faq/intro.txt
atheism/faq/resource.txt
overwork
modem
help"
/index"
they've
clutter
mailbox
though!
mangle
transit
23:17:25
bake
timmons
<timmbake@mcl.ucsb.edu
bible-lover
chill
relax
bankrupt
>where
nonexistence?
joke
skateboard
tangent
courtsmean
solemnly
swearing
swear
greensboro
routine
courtroom
session
terrible
anxious
30
jail..
<1993apr18.231914.143616@zeus
.calpoly.edu>
jmunch@hertz.elee.calpoly.edu
tal
>kent
finn-tastic
sandvick
>cindy
popsicle
toes
kandolf
>simon
clip-that-theist
clippendale
>umar
>rob
g-d
>dave
buckminster
>maddi
affectionate
nickname
me?
spelled
surname
kent
sandvik
sandvik@newton
.apple.com
alink
ksand
nail
ronald
reagan
blond
hair,..
vested
mock
foot?
>atheists
weak!
>take
drivel
grand-daddy
stalinist
movement?
_killed_
>proudly
russian
>though
pompous
idea!
lots
a,e(
)=yes,b,e(
)=no
g,e(g)=yes
.g,e(g)=no
a,.....e
a,.......g
e(g
indeterminate
e'
afraid
undecided
>feature
sexy
trendy
glamorous
>word
blasphemous
unsophisticated
nietzsche
darwinist
indecision
drill
<c5l1ey.jts@news
.cso.uiuc.edu
cobb@alexia.lis
.uiuc.edu
mike
cobb
<11825@vice.ico.tek.com>
"atheists
>>be
proclaim
undy
earnest
presumptuous
mac
champaign-urbana
-bill
clinton
3rd
cuts
310
deficit
falsifying
closed
sun
proven?
in?
debating
unabated
passion
8-
>>finished
writing
sequel
<2944079995.1.p00261@psilink.com>
>writing
>handed
assistant
proofreading!
>decent
messiah
built-in
spellchecker
2.0
>come
fbi
wordperfect5.0?
wp5.0
owned
mormons
requesting
profound!
darin
wilkins@scubed
.scubed.com
yield
societally
mandated
pardon
exercising
felt
forcing
pitt
penn
controversy
>bringing
>hell
bitch
operator
etiquette
>account
knowledge/permission
law.
>patrick
saxton
second-rate
>pts102@psuvm.psu.edu
anon
>pts@ecl.psu.edu
ob.atheism
batman
all-cap
suspect
irresponsible
two..
self-
correcting
delightful
inquiry
stern
stony
consciousness
determinism
indeterminism
superdeterministic
_for
sure_
tell?
_one
biosphere?
machinery
perspective?
awareness
heavens
aristotle?
ethica
nikomakhea
sp.
c.s
abandon
root
wire
possiblity
altruistic
_empire_
gentiles
pool.
judgment
_their_
others'
chimp
saved
drowning
continuous
mixing
_which
exist_
thinker
non-observers
non-point
beauty
husband
zombie
mad
credible
_any_
_including_
<115670@bu.edu
<11826@vice.ico.tek.com>
>>childish
propaganda
bcci
infantile
evaluate
bit?
grandeur
blinding
ass
>>not
>begin
vice!news.tek.com!uunet!psinntp!wrldlnk!usenet
10:01:11
pdt
being/not
bccus
>banking
>bennett
neil
banking
>times
13
excuse?
slander
sub-thread
#12
cheribum
ark
covenant
graven
idol
wrodhip
atonement
idol.
>rule
mix
>extermination
mongol
stalin?
>unsympathetic
atrocious
_him_
state!!
niether
lunatic
crazy
encyclopedia
enamour
pope
headpiece
mud
chort@crl.nmsu.edu
ap
newswire
vatican
misfit
gillow
geneticist
undercover
popehat(tm
spur
groundshaking
innermost
workings
vietnam
wheel
chair
community(tm
hefting
kilogram
extraneous
tissue
skull
transplant
marrow
fluke
mid
bred
sixty
timothy
leary
transplanting
deer
rat
assassination
disappearance
dr
padded
chamber
<healta.136.734813153@saturn
.wwc.edu>healta@saturn
.wwc.ed
tammy
healy
said,"
ee
did?
sick
gonnum
lesson--forgive
struggle--
>"the
betweed
>decisions
tyrannic
omniscience?
world?
description?
<1993apr15.180024.19308@wam.umd.edu
+last
2a.m
rebroadcast
springer
+talk
jewel
+the
+religion
+interesting
scary
no?
+killed
+go
homeland
+is
jeruselem
gen
2???
battle
+or
revel
roomate
+and
kjv
desk
immediat
opened
rev
+look
+know
hating
curiousity
pique
jist
pharisees
condemning
nancy
o'connor
undergrad
fraser
<kmr4.1576.734879396@po.cwru.edu>
#in
<1qj9gq$mg7@horus
.ap.mchp.sni.de>
frank@d012s658.uucp
frank
o'dwyer
#>is
*better*
bad?
o.k.
predict
motion
sonic
hedgehog
album
opinion?
'i'm
hatch
that'
odwyer@sse.ie
>mccullou@snake2.cs
.wisc.edu
mccullough
>>question
egotistical
deal?
"egotistical
job?
anyways?
imbecile
>worm
earth,
grumblegrumble
>little
irked
self-organizing
globule
tiny
>started
awesome
all-perfect
insulted
how/why
shuold
'cell
globule'
tniy
kinda
>willing
grand
sacrifice
headline
sacrifice?
back?
who'd
-chris
agoin'
west!!
<rayc5jak7.d7e@netcom.com>
ray@netcom.com
fischer
#frank@d012s658.uucp
#>plus
subjectivists/relativists/nihilists
#>het
relativism
objectivism?
#to
decription
#truth
objectivism
#control
falsehood
#assuming
_are_
#relativists
negotiate
workable
#produces
front
relativist
compromise?"
crowded
shopping
areas"
*meaningfully*
#objectivists
#is
#you
amoral
#with
flexibility
rigidity
shot
jfk
#given
peaceful
endles
contention
#i'd
better"
taste
liking
ice-cream?
<kmr4.1577.734879611@po.cwru.edu>
<1qjahh$mrs@horus
#>in
<pww-140493214334@spac-at1-59.rice.edu>
pww@spacsun
.rice.edu
#>#but
#>#what
mediate
thair
moralon?
scalar
#>#valuino
field?
#>science
world"
#>as
#>simple
#>to
tarot
#>i
sequitar
sequit
<1993apr13.213055.818@antioc.antioch.edu>
smauldin@antioc.antioch.edu
invention
--god
ahhh
.autotheism
<lsr6ihinnsa@exodus
.eng.sun
emarsh@hernes-sun
eric
marsh
#i
#it
backtrack
#value
#or
monetary
#usefulness
#considered
worthwhile
#of
calculate
numerical
mus
#the
duratation
tone
darkness
#lightness
distinctive
#sound
#these
usefulness
#if
#be
#eric
<1qk1md$6gs@kyle.eitech.com>
ekr@kyle.eitech.com
rescorla
<1qjbn0$na4@horus
<kmr4.1571.734847050@po.cwru.edu>
undefined
#>really
#>of
u.s.
$1
#>sound
#well
#we
lucky
parameter
infinitesmal
valuation
false?
>particular
hazard
stupidity
anarchy
entail
>etc
general"
practiced
canaanite
post-modernism
>issues
polarity
>constructs
inspection
old!
>appropriate?
spokesman
clandestine
captive
persecute
*are*
feeding
resistance
tatooe
<c5hqxj.jdg@ux1.cso.uiuc.edu
<lsran6inn14a@exodus
<c5hqxj.jdg@ux1.cso.uiuc.edu>
lis450bw@ux1.cso.uiuc.edu
lis450
>>hmmmm
hair
ear
stryper
_i_
>>ten
>>sayings
>gong
disqualify
this!
torah
prophets
subjective?
joke?
wool
deceiver?
<c5hiew.7s1@portal.hq.videocart.com>
dfuller@portal.hq.videocart.com
dont
aboard!
factually
spout
fools/evil
peachy
pro/con
aboard
abord?!?
<house.734841689@helios>
house@helios
.usq.edu.au
ron
marshall@csugrad.cs
.vt.edu
kevin
marshall
>healta@saturn
.wwc.edu
bud
>>before
now--with
>>ages
>>better
on!
supercede
>well-being
>twice
>sort
cooperative
bet
sold!
<1qkfte$3mh@horus
:>#in
frank@d012s658
>#>is
moon
sattelite
orbit
orbital
astronomy
fan
singing
competator
mario
toadstool
ablum
<1qkhju$43c@horus
holand
1942
ss
trooper
you-
lie?
stipulate
no"
bissda@saturn
bissell
>die
liar?
>gathered
>heal
grifter
charlatan
civilization
copperfield
healer
doubtful
rubbish
psychopaths
megalomaniac
tojo
mussolini
qadaffi
papa
doc
nixon
...all
non-issue
>real
discrete
faq!
fulfilled
psalm
isaiah
24
hr
betrayal
crucifixion
>write
tome
flamed
mercilessly
sacrafice
>sake
tuff
persevere
lift
guitar
drum
>time
helping
unit
sport
>carried
>ourselves
total,
[sp]
involove
hehehe
television?
<1qk1pp$6hj@kyle.eitech.com>
|in
<1qjd3o$nlv@horus
|>in
<sandvik-140493230024@sandvik-kent
.apple.com#
sandvik)
|>#in
<1qie61$fkt@horus
|>#o'dwyer
|>#you
defintion
|>#objective
|>#as
sub-part
quark
|>firstly
|you
|means
|perhaps
|they
|it
des
|valuing
privacy
valued
'objective'
'correct'
attach
outputs
observe?
fact?
noise?
loyal
whim
gigo
|>so
|>from
|see
<1qjb40$n4f@horus
<1qijer$a2r@geraldo.cc.utexas.edu>
taite@ccwf.cc.utexas.edu
t.a
taite
disobedience
force?
self-defence
moral?
<kmr4.1466.734160929@po.cwru.edu>
children"
favorite!
trilemma
misdirected
rhetoric
critical
learning
peril
righteous
flaming
nice!
smiling
fluffy
bunny
wake
up!
goodwill
unselfishness
iran
greedy
power?
'perfect
utopian'
corruption
<1993apr14.132813.16343@monu6.cc.monash.edu.au>
zero-interest
economy
premature
zero-intested
economical
small-scale
co-op
co-operative
scale
greed
constructive
contributor
eon
spare
<1qjfnv$ogt@horus
hero-worship
worshipping
super-saver
hero-worshipping
pleasant
eh
borderline
#actually
#a
mapping
#that
russia
#only
robertson
tilton
<bissda.4.734849678@saturn
.wwc.edu>
campollo
book-
mind/brain
filter
'liar
saint'
<1qkjvc$4jv@horus
verge
retirement
viewing
market
<1qjclt$nh7@horus
<1qiore$20b@fido.asd
audience
#by
canvas
member?
gm
stays
#gm
#frank
undervalue
slickest
salesman
tantrum
merciful
#what
<lsrbmninn16q@exodus
adj
3.a
uninfluenced
observable
online
lick
1b1
agent
1b3
intersubjective
1b4
perceptible
<kmr4.1587.734911207@po.cwru.edu>
housing
#tell
#holding
#never
#trouble
whiskey
grim
'objective
exists'
'i
morals'
.b.
'according
me'
<1qkhsa$43q@horus
>sequits
differentiate
merging
monatary
<1qjf31$o7t@horus
<1qimbe$sp@fido.asd
<1qif1g$fp3@horus
<1qialf$p2m@fido.asd
gotta
you"
lennon
worship"
newspeak
#ask
#nazi
kaiser?
dichotomy
non-atheist
god-belief
suscept-
ibility
autonomous
gullible
excitable
<1qkj31$4c6@horus
>basis
>dealing
>demonstrate
usefor
thu
04
:54
:38
dlb>
dlb>lunatic
dlb>writes
central
<1qkoel$5fr@horus
>holding
>exists'
troops
unitarianism
<1qjipo$pen@horus
<1qinmd$sp@fido.asd
#tricky
tricky
#are
irish
protestant
occupation
partition
populated
grotesque
civilian
insofaras
insanity
paragraph?
#but
.i
#motivated
#and
#they
rewrite
attacking
ira
terrorist
warrington
s/he
<1qi83b$ec4@horus
>--god
crank
relaxing
<1993apr9.154316.19778@ultb.isc.rit.edu>
<kmr4.1483.734243128@po.cwru.edu>
green
marble
deceit
>>irrelevent
marbles
it!!
file!
one!
unproven
>>being
decietful
>fact
>right?
flat
round-earther
daenicken
circumstancial
agreeable
rush@leland
.stanford.e
<1993apr5.050524.9361@leland
real?
kr>
sadly
harmless
"ole
prattle
he!
feminism
superiority
laughable
rifle
preemptive
strike---
aka
canada
qu'ran
vancouver
thursday
davidson
canadian
montreal--
five-year
daughter
shock
patrick
prevost
loved
police
apartment
northeast
montreal
39-year-old
mechanic
suicide
jocelyne
31
quarrel
broke
kitchen
slay
quebec
domestic
one-third
ommit
<1993apr11.145519.1@eagle.wesleyan
.edu>
kmagnacca@eagle.wesleyan
silence
>>taken
>>must
actaul
testify-
quran?
spell
touch
lifelong
ambition
dropping
--duke
--pink
floyd
3.8
<c5hr5m.kh2@ux1.cso.uiuc.edu>
>eric
hadn't
absurd?
abolute
becasuse
advocates
person/group
meant?
<30114@ursa.bear.com>
#i'm
#when
idiom
#give
|please
deprived
volition
rainy
<c5c7cn
.5gb@ra.nrl.navy.mil
khan@itd.itd.nrl.navy.mil
umar
fatwa"
>"it
>sentence
jurisdiction
>applies
non-muslim
lands
>must
>individuals
>self-defence
shoud
territory
*precisely*
anarchist
_enforcible_
_law_
>hence
ulama
hadd
>[compulsory
_applicability_
foregoing
*enforced*
*were*
>wow..
>khomeini
limb
khomeini
>anyhow
_knowledgeable_
illegitimate
>expounded
>(particularly
>according
<1993apr15.010933.23524@mnemosyne.cs
.du.edu>
kcochran@nyx.cs
cochran
>[note
talk.abortion
>sounds
consensus
>=kcochran@nyx.cs
b(0-4
c-
d-
e++
f-
g++
k(+)
r(
s++(+)
tsakc=
>=my
ok???=
="do
pump
purse
shade?
perfume
whisper
>='please
."-laurie
morgan=
<1993apr14.131032.15644@monu6.cc.monash.edu.au>
ulema
cash
ruling
sunni
jaffari
dar-al-islam
apostasy
persistent
precedent
indiscriminantly
levelling
fasad"
muddy
_distribution_
_writing_
_publishing_
concur
publication
fasad
diplomatic
stressed
circulation
preliminary
crisis"
issuance
blitz
lone
knight
democracy
milk
boost
demonstrator
protesting
momentary
independant
publisher
shatim
umbrella
iman
heresy
embedded
esoteric
s.a.
exoteric
introductory
murtaza
mutahhari
mizan
campbell
follow-up
wilaya
station
mastership
transcription
chittick
muhammadus
stocked
shi'ite
>|in
<1qi921$egl@horus
[stuff
recognise
bearing
sundry
zip
nada
>|apart
>|is
taught
>|the
>|instructions
madly
>|conflict
act?
*atheism
god*
>causes
null
genocide?
choweller
davec@silicon
.csci.csusb.edu
score
--george
shaw
<bskendigc5jcwx.jzn@netcom.com>
s.c.a
scum
commonly-held
walla
.atheist
allegheny
alt.fan
.dan-quayle
>makes
>lunatic
>writes
xtianity
darken
pre-xtian
embark
megalomania
defect
cure
sum
>different
>others
perspective??
bwahahahahahahahah!!!
>modern
sigh!
insightful
most?
abound
examination
salesmanship
nazism?
proletarian
dictatorship?
democracy"
question!
>wouldn't
xtian
apologist
distort
ot
<1993apr13.184227.1191@ultb.isc.rit.edu>
>comprehend
>require
infinietely
units-
continuum
>beyond
man-made
etc..
precice
<1qg79g$kl5@fido.asd
grasp
death-threat
muslim?
death-threats
falsity
*hate*
regime
purport
fond
marxist
dialectic
clown
interchangeable
>generations
>translations
*copy*
*the*
*text*
qumram
misunderstand?
mail.sas
.upenn
>#what
>sound
>frank
>odwyer@sse.ie
hen
evelyn
conlon
value--just
widely-held
(((((((((((((((((((((((((((((((((x)
zimmerman
ah-puc
sake?
pzimmerm@mail.sas
vulgar
ug
deathsucker!
<1993apr10.191100.16094@ultb.isc.rit.edu>
>insults
unintentional
_defined_
bigoting
<1993apr14.121134.12187@monu6.cc.monash.edu.au>
.5gb@ra.nrl.navy.mil>
demanding
ilk
publicly
>>come
>>apostacy
>>coversion
conscience
aggravated
disavowal
punishable
jurist
cursing
shatim"
>lots
deleted<
>looking
>didn't
>start
perpetual
bn
naren
bala
software
evaluation
503
627-0380
627-2742
<1q0fnginnahu@gap.caltech.edu>
<c5c9fa.6zh@acsu.buffalo.edu>
<1qabe7innaff@gap.caltech.edu>
<1993apr15.150938.975@news
.wesleyan
.edu>lines
>keep
utterly
wow
away--
depressing
counting
sailed
greener
pasture
damnedest
rec.arts
.startrek
deluge?
inquire
also--
track
infamous
bruno
willl
store
newsgroups/mailing
semi-regularly
toughto
incompetent
computing
outgoing
'em
say..
he?
mind-
both?
alunatic
perfecet
reasoable
dregs
heal
deaths
sieg
heil!!
koresh?
thereof
uhhh
shaky
ourselve
*sigh*
<1q338l$cva@uxa.ecn
.bgu.edu>
gsu0033@uxa.ecn
.bgu.edu
mola
infectious
cult
safety
blanked
wow..all
'haha
hell'
mentality
average
xtainity
escapist
absolutist
day-to-day
frustration
unhappiness
escapism
immigrant
somethong
anybody..
buddha
attractiveness
mountain
stone
be"
scond
...let
inflicting
evangelism
poweful
non-believer
inter-religious
impedence
us-&-them
taiwan
noticing
chagn
knows?
rights/agreements
notions
well-put
instinctive
claw
unenlightened
tan
chade
meng
singapore
transcends
dogmas
cmtan@iss
.nus
.sg
<1q23qfinn91b@ctron-news
>adpeters@sunflower.bio.indiana.edu
)writes
soup
>useful
destructive
ultraviolet
token
>polymerisation
sp?
depolymerisation
carle
woose
warm
pond
archeobacteria
melt
everday
therapy
stubborn
>life
handed
>states
p=1
abiogenisis
rad
biololgy
arogant
writting
brilliant
checking
memorable
capture
19
feb
too?"
#473
#53766
48
notable
loren@sunlight
.llnl.gov
loren
petrich
jchrist@nazareth.israel.rel
nazareth
mrc@tomobiki-cho.cac.washington
crispin
perry@apollo.hp.com
lippard@uavax0.ccit.arizona.edu
minsky@media.mit.edu
marvin
minsky
bunch...
pc-nfs
architect
select
objecting
>>postulates
really>`
>gravity
>experiments
gravity
excess
innocence
non-inherent
mating
ritual
>>outsider
>>sort
inherence
necessitate
design?
classify
>>moral
>>do
>>immoral
undesired
unproductive
>>times
>>our
mimic
thrive
*seem*
highlight
>word?
wild?
>>needs
species'
propogate
>>such
monagamous
abstinence
herd
dominate
stallion
mates
dies/is
killed/whatever
>mates
figurative
reexamine
dictate
beings
detach
>primitive
non-moralistic
>becomes
madman
roof
'theory'
>explains
situation?
madmen
output
computer?
hypothesis
>domestication
domestication
domesticate
>>them
inanimate
>>mercy
merciles
paren
transf
transfer
fig
>figurative,-ly
sample
thy
cruell
plucke
poore
puniness
frown
*very*
painful
differentiation
<c5jrde.m4z@news
.cso.uiuc.edu>
falsi-
fiable
falsifiable
icr
senior
intel
scic
uunet!scic.intel.com!sbradley
admin
malpractice
<1993apr15.074615.957@abo.fi>
<c5hr14.jxw@ux1.cso.uiuc.edu>
sig?
crosspost
talk.abortion?
inotherword
>what?
yup
nn
glitch
oneday
courage
limitation
aberrance
rock
<sfnntrc00wbo43lruk@andrew.cmu.edu
sacco"
<dsav+@andrew.cmu.edu>
tons
.religion?
>--there
dylan
>--"if
you'd
movie
heather
>--lecture
lek
chur
>become
.ap.mchp.sni.de
walker
>#in
>#o'dwyer
>#but
>#valuino
>science
>simple
>#and
friendship
setup?
order?
another?
good?
circular?
>portions
ahhhh
*existence*
>better
'rational'
rationility
'wrong'
versus
'right'
suspend
'no
objective'
cross-purpose
>>mac
gosh
on?
carve
chest
tragic
bosnia
ethnical
saga
weapon
bosnian
serb
oppressor
<2bc8b03b.29868@ics
.uci.edu>
bvickers@net1.ics
.uci.edu
brett
vickers
>scientific
understands
>example
classroom
pseudoscientific
bill!
ga
_did_jesus_exist_
0301860025
inviolability
scripture
laugher
mellenia
fanatic
devotee
isnt
slightest
brainwash
guano..
first-century
well-understood
deterrent
shenanigan
relegate
instate
deter
effictive
$50
speeding
caught
torture
knocking
stopping
handing
thier
thorn
xma
crock
pamper
sight
<kmr4.1582.734882394@po.cwru.edu
e-mailing
door!
while?
coward
.athiesm
bible-thumper
duller
delude
athiest
totear
tidbit
plausable
books
xtians
unlike
track?
illiterate?
boot
wine
rome
standing
streetcorner
hatre
robot
contridiction
see?
>>good
fusion"
counterexample
>>try
non-mating-related
mating-related-activity
>>yes
>>goal
follow"
>birds
immoral?
bisexuality
>>>>because
group?
jargon
>>otherwise
>>goal--but
>postulate
revolve
>earth
cheese
intrude
three-dimensional
triangle
angle
>third
>guess
receptive
>work
>dont
>dfuller@portal.hq.videocart.com
keeper
award
fuller
<115256@bu.edu
>>judaism
>>reiterate
>>simply
lazy
publical
>practicing
>failure
laziness
>stay
_some_
constitution
e.g
kuwait
tiresome
chronology
_tsv_
_that_
rejoin
>gregg
khomeneus
>>british
heretic
khomaneus
>heretic
>guy
iranian
>students
>feeling
>suggest
muhammad
chastise
imprecise
wording
lust
incongruous
belfast
ni
expensive
>problem
incentive
dump
appall
dumping
radioactivity
it'd
profit
>>could
>>"the
baggage
era"
>loans
>compromise
loan
>ripped
depositor
>community
childish
propagandist
>>>at
pertinent
>>>topic
>>>kingdom
>>ah
forgetting
superior
>>religious
degenerating
'zumder
>superior
>leaders
>obviously
algeria
repress
won
<c5ftjt.885@sunfish.usd.edu>
rfox@charlie.usd.edu
fox
univ
dakota
<1993apr10.213547.17644@rambo.atlanta.dg.com>
[earlier
_did
exist?_
premise?
anatomically
endow
intellect
human-like
ape
reconstruct
fragment
probaby
steal
covet
dilemma
think?
atone
contradiciton
beef?
's"
confirmation
therefrom
apocrypha
any?
pliny
<11810@vice.ico.tek.com
>subject
agency
21:41:31
<healta.133.734810202@saturn
healta@saturn
testement
sda
inthe
crossfire
teh
'splainin'
giggle
soory
cranky
apoplogize
<1993apr14.190904.21222@daffy.cs
.wisc.edu>
mccullou@snake2.cs
wed
:04
<1993apr14.131548.15938@monu6.cc.monash.edu.au>
<madhausc5ckip.21h@netcom.com>
>>>mark
*really*
vegetarian
diet
b-vitamin
balancing
>>>there
vitamin
non-animal
>>>products
vegan
eat
>>>meat
dairy
b12
>>>problem
supplement
>>>does
by-product
ovo-lacto
>>>vegetarian
>close
>b12
dietary
>>b12
whole-grain
australia
>>tablets
enriched
type?
>rice
soybean
>>just
programming
>m^2
taht
eats
i.e
acutal
lacto-oveo
mish-mash
>>so
disregard
>someone/something
_consider_
instinct
>>it?
>weaker
>organism
bahavior
intelligence?
arbitarily
>significance
remnant
>>term
>>definition
sdoe@nmsu.ed
doe
>>*is*
>>most
>*this*
<115290@bu.edu
>>would
>>behavior
excusable
>doesn't
iran?
excusable?
inexcusable?
<sandvik-140493185034@sandvik-kent
.apple.com>
01
:51:57
<healta.135.734811375@saturn
>(tammy
hea
ezekiel
28
:17
hart
splendor
helpless
gaze
knowthat
1st
prince
prophesy
12-19
>tammy
rationale
cites
>cheers
>sandvik@newton
wicked
neccessary
<16bb112dfc.i3150101@dbstu1.rz.tu-bs
clark
:28:27
>>pretty
>>i'm
>>decisions
>tyrannic
>world?
grain
salt
beleve
believeit
soapbox
>>look
>>compared
>>things
contradicted
mentiopn
`little'
>>going
pave
intrusion
>>hasn't
to..
*has*
>describes
*caused*
>>harass
>>theists
>ammunition
unpatriotic
ammunition?
>sure
anthem?
bles
america?
>imagine
dead"
>certainly
tempt
rub
>face
debunk
sling
>gets
endorsement
trusting
acknowledgement?
>coin
godlessness
problem?
methodical
emulate
compatible
>>"right
deem
>>up
complaining
*did*
>>>your
metabolize
>>oh
enslave
>>animals
>persoanl
vegetarian?
*personal*
cow
veal
youngster
<kmr4.1572.734847158@po.cwru.edu>
bobby?
04:12:38
>>(tammy
>>>ellen
>>>remarks
>>>"do
>>>of
fromthe
mount
blessing
124
>>point?
amen!
<11820@vice.ico.tek.com
>keywords
18:21:21
>>makes
>>lunatic
>>writes
ripe
gut
gill
fillet
popcorn
coutesy
you'
ve
<1993apr14.213356.22176@ultb.isc.rit.edu>
21:33
:56
<healta.56.734556346@saturn
>>bobby
>>ellen
>>remarks
>>"do
ellen
>>put
>>tammy
>point?
eveil
counterproductive
bacause
don'
failing
miserably
agaist
do?!
messgae
<1993apr14.205414.3982@leland
voelkerding
20,000
>>convicted
>>hence
>>execute
>>purpose
off-the-cuff
sentenced
ratio
240,000
death?
meter
1900
10,000
2?
solution?
off-hand
clothing
unfit
enrish
homeless
clyde
butterfly
reason!
rebel
organisation
godhood
yoke
strap
embassy
truth?
napoleon
reagan?
dollars
technique
unbiased
genghis
jones
triad
self-fulfilling
selective
diting
behalf
riddle
nostradamus
rave
'prophecy'
reconsider
unconvincing
<1ql0ajinn2kj@gap.caltech.edu>
verb
must"
warn
kindergarten
laws?
_know_
righto
cornflakes
mahdi
son-in-law
usq
toowoomba
>humans
thee
museum
skeleton
australopithecine
primal
hominid
erectus_
morphological
cranial
supraorbital
ridge
receding
sharp
angling
occipital
recede
chin
masseter
muscle
chewing
pentagonal
shape
diastema
incisor
canine
protruding
shovel-shaped
_h
bipedal
_erectus_
human?
ape?
bvickers@ics
<1qi3l5$jkj@fido.asd
upsets
bbcus
operated
long-running
ruthless
savings
interest-motivated
street?
cheat
significance
mimicry
imitate
parrot
pol
pulchritude
polly
>>>>what
>>>saying
>>>assume
err
>instinctive
non-human
pattern?
>>pattern
princple
things--the
phyic
cruel"
silent
sufficient?
>>resulted
intial
>>discussion
morality--so
>>removed
mening
overpower
>>follow
>ok
<1ql667inn54a@gap.caltech.edu>
craziest
basis?
hangover
toe?
argument?
<1ql6jiinn5df@gap.caltech.edu>
pevasive
imperail
austria
disenfranchisement
fuller@portal.hq.vi
steadfast
openly
president?
ever?
'bout
tick
...the
promo
cults
ahem
baptism
birth?
ack
barf
...shortly
bs
believer!
...he
it--his
_didn't_
decade
readily-available
pre-digested
rammed
patch
blech
leger
sophomore
carnegie
mellon
...if
around?
adultress
folly..
recently-minted
cent
<1993apr15.223844.16453@rambo.atlanta.dg.com>
who?
hear-say
mixture
85
guaranteed
shovel
biggist
whil
has!
<wpr@atlanta.dg.com>
yu
alittle
imaginative
arent
fame
donate
now..
>almost
societies-
citizens-
security
>#>really
>#>of
>#>sound
>#well
>#we
>predict
pl
tetanus
-ekr
ekr@eitech.com
<1qkn1t$59l@horus
>|>in
>|>#you
>|>#objective
>|>#as
>|>firstly
>|you
>|means
>|perhaps
>|they
>|it
>|valuing
>results
>valued
twaddle
overload
omission
outright
commission
>telling
>say
>"no"
>do?
>satisfy
partake
discovery
letterman
medicine?"
hit
jackpot
totality
locality
macrocosm
miniature
noise
versa
curiosity
ramble
lately.
<1993apr7.163445.1203@wam.umd.edu>
west@next02.wam.umd.edu
emasculation
internment
tribe
>-the
counter-reformation
colonization/destruction
africa
philistines
>-aryian
india
missionary
assault
*lack*
.d
fanatics-
shove
yourself-
esther
pur'im
celbration
joy
75,000
tripping
peacefull
swing
slammin
'course
joshua
jawbone
inspired
stomache-contentsthan
unpleasant
switching
@religious
bloodiest
preen,preen
ideological
caste
overuse
nazism
stalinism
*entirely*
powerfull
*specifically*
heating
silver
butter-dish
<1ql7utinn5sg@gap.caltech.edu>
terrestrial
<1q52q8inn6pi@gap.caltech.edu
<93099.234144mvs104@psuvm.psu.edu>
<1q8lk3innitq@gap.caltech.edu>
<93102.062908mvs104@psuvm.psu.edu>
<93105.022621tan102@psuvm.psu.edu>
<1ql71pinn5ef@gap.caltech.edu>
>andrew
newell
<tan102@psuvm.psu.edu>
>>should
govt
unavoidable
>>every
>>face
>>gets
...just
chat
...then
exercise
amusement
...not
sugnificance
significence
intuitive
devastating
<2bcc892b.21864@ics
<115290@bu.edu>
>>>well
>>>would
>>>behavior
islam-related
:52
p.s.t
all-knowing
congratulate
wise
crisco
bend
invite
spin
:59
precedence
>law?
precendence
instruct
khaliphate
genral
dhimmis
exempt
jihad
zakat
alms
re-affirm
thru'
>upon
>places
>recipe
>leonard
150,000
pound
60,000
50,000
lender
debt
intrest
sight!
ithat
>>>sure
>worse?
>>>for
>was
*this*
>>said
>pevasive
>arrived
>>>explain
>>beings
>isn't
moral,
slayings
whatnot
consider?
gorilla?
dolphin?
platypus
drawn?
aware?
arbitrarily
other?
significant?
>"goal
>term
<1993apr16.015931.12153@mnemosyne.cs
humor
copeland
gipu
know..
iron
tablet
reinscribed?
here!
enclose
unwritten
<1qlef4inn8dn@gap.caltech.edu>
twenty-twenty
hindsight
<1qlf7ginn8sn@gap.caltech.edu>
criterion?
long-
map
habit
<1993apr15.081303.16532@cadence.com>
banks
pal
lend
quantify
borrower
calculation
handling
specialise
they'll
reinvent
riiiight
sugar
<1qlettinn8oi@gap.caltech.edu>
bahaviour
self-awareness
morality>
blind?
>couldn't
>>ripped
>>community
>grow
precious
<1993apr15.231515.19982@rambo.atlanta.dg.com>
shoddy
workmanship
calvary
smell
>constitution
>said
>weren't
>knew
afternoon
of>baptism
bright
eyed
altar
boy
pry
wears
chasible
highness?
ironicise
behaviour?
dance?
<1993apr15.225657.17804@rambo.atlanta.dg.com>
stor
wells
interpolation
dis-harmony
<1993apr15.231515.17804@rambo.atlanta.dg.com>
mysticism
neb
rsv
chapter
onerous
sharpe
sharpe@nmesis
.enet.dec.com
ph
61-8-235-7237
...-7299
digital
139
frome
st
adelaide
5001
oz
equipment!
followup-line
deducing
consequense
roundness
solar
shut
tero
cust_ts@cc.helsinki.fi
custts@cc.helsinki.fi
>you're
>survive
>"right
knoweldge
>>was
>difference
resolution
interactive
>>adversely
53
<c5jxba.2gq@news
aha
absolutism
aquaint
tie
evil"
_why_
parse
bad"
perchance?
'useless'
'bad'
unmotivated
<1993apr13.173100.29861@ultb.isc.rit.ed
>>beleiver
...because
unapplied
off-handed
_anything_
offshoot
believe-it-and-it-becomes-true-
don't-believe-it-and-it-doesn't
exclusion
_behaviors_
_waving
hand_
inaccessible
carelessly
_knowledgeable
believer_
>he'd
>existence
_reject_
>rushdie
>number
_simple
speech_
<115288@bu.edu>
>>he'd
>>existence
>>number
_rejects
_talk_
homestate
_very_
>held
bigoted
minnesota
atlantic
pa
provence
florida
stuck
liberal
progressive
trip
minnestoa
neighbour
<pww-150493204912@spac-at1-59.rice.edu>
#o'dwyer
#count
#whether
understand?
desperately
#individuals
*want*
peter?
<pww-150493211043@spac-at1-59.rice.edu>
mighty
bold
*no*
relevance?
situaton
rising
freeedom
19:20
:37
edt
>among
asia
cuz
soc.culture.african
benevolence
<1qkn25$k@fido.asd
proviso
#people
caveat
provisio
admission
#jon
<1qkndq$k@fido.asd
#us
#exists
<sandvik-150493180341@sandvik-kent
#livesey
#another
gedanken
bridge
adjust
#this
tourist
seller
confidence
buyer
disinterested
<1qktj3$bn9@squick.eitech.com>
ekr@squick.eitech.com
#>|perhaps
#>|in
#>|they
#>|it
#>|valuing
#>it
#>results
#right
#>and
#>valued
#twaddle
a?
"science
"objectivism
valuing
non-subjectively
picking
maybe-not-quite-sure
ticket
#like
#not
chip
s/w?
vacuum
aha!
relativist!
wafffling
maul
blurb
brat
mcvey
elc&eltnc
eng
whyalla
uni
9051467f@levels
.unisa.edu.au
t.s.a.k.c
\/darwin
o\
whjjm@wh.whyalla.unisa.edu.au
unisa
|"it
rainbow
smack
|understand
refractive
|produce
<healta.145.734928689@saturn
well-balanced
astounding
substantiate
supportable
elephant
dance
plum
fairy
jupiter
evidence!
adda
wainwright
dim
atal
llanw!
8o
mae
'ma
ar
werth!
<c5j718.jzv@dcs
.ac.uk>
tk@dcs
tommy
kelly
'values'
'science'
recognition
quantitative
modeling
reinterpretation
proposer
underlay
newtonian
physic
massacre
6.3
'inferior
races'
20-30
million?
[socialism
bombay/iodia
brazilian
s.am
infact
re-inforcing
*true*
god-fearing
<pww-150493205533@spac-at1-59.rice.edu>
#so
*to
me*
#desires
#accurately
#individual
researcher
unequvocal
ob
substantial
f=ma
#strawman
doctored
mix-up
#you've
bark
#anywhere
ireland
<pww-150493204223@spac-at1-59.rice.edu>
#now
can't?
all!
#explains
>plus
>het
>theories
frank-
verrry
prego
embarrassed
downfall
clever
<timmbake.735265296@mcl>
timmbake@mcl.ucsb.edu
"clam
>fallacy
lo!
beckon
>[wonderful
_hard_
>>rule
>>extermination
conquered
>>unsympathetic
cause.that
.but
state!!how
>>anyone
whethe
grip
indictment
occasion
*said*
wrt
prove?
flocking
they|be
i'mm
enough..
'bible'
relied
upon?
thread..
deleted
such-and-such
unalterable
>indicting
arrogance
wont
bzzt!
pronoun
boast
itself_
arrogant?
*meant*
worthy!
misinform
put-down
misinformation
syllable-perfect
acquaintance
>approximately
codification
<1993apr17.153653.26206@princeton
datepper@phoenix.princeton
aaron
tepper
arts
weren'tcha?
photo
logo
world--
>"ibm
noble
krypton?
xenon?
>specifics
>atoms
electron
>verifiable
difference?
msee
electromagnetic
mechanical
repeatable
bohr
mid-century
reapeatable
deterministic
<11847@vice.ico.tek.com>
>beauchaine
>>bennett
*knows*
*cannot*
spreading
slanderous
mmm
stimulating
doubtles
soc.culture.islam
my..
...kill
hoping
achieve?
11853@vice.ico.tek.com
disposition?
givin
folly
logic"
spec
<30136@ursa.bear.com>
>>>atoms
>>>an
>>>certain
surroundings
framing
[atoms
microscope
atoms
figment
>ha
ha
ha!
>through
twilight
zone
-jim
<30142@ursa.bear.com>
halat@panther.bears
>>guess
>>"ibm
>>specifics
>>atoms
>>verifiable
>likely
>electromagnetics
>wave
>representation
>probably
>subjective
>objective
>allows
>unambiguous
>einstein
>bohr
>inherent
>motion
>exact
<1993apr17.184948.4847@microsoft.com
russpj@microsoft.com
russ
paul-jone
<1993apr16.193723.19050@asl.dl.nec.com>
duffy@aslss02.asl.dl.nec.com
duffy
>>universe
falsifiable?
predicition
>observe
>evidence
>incorporate
>10,000
>-russ
>russpj@microsoft.com
nonrepeatability
experiment?
ofexperiments
."as
unobserve
observability
duffy@asl.dl.nec.com
nec
adpeters@sunflower.bio.indiana.e
>bullshit
>religion
>macroevolution
>make
hypocrisy
dude
beaten
rude
etc...
'cuz
babbling..
'let
party!'
delay
posted
.i'v
coincidental
rearrangement
<c52q47.7ct@ra.nrl.navy.mil>
<1ps98finnm2u@dsi.dsinc.com>
>>only
>>nature
(fiction
>>however
>>contained
>>has
>>claimed
>>than
>>factual
>postings
aa
[inter
alia
vindicate
skepticism
clearer
depict
offense
uphold
amicable
club.
construe
interpretationa
in-context
essay
correspondent
*2
condescend
anytime
extermination
unsympathetic
#6
waiting
crumble
>dogmatic
'evidence'
'we'
wait?
*by
definition*
_outside_
<1r15rvinnh8p@ctron-news
>>bill
writes
>>bullshit
>>religion
>>macroevolution
>>make
inadequate
>treated
hitching
_substantial_
<1993apr17.122329.21438@monu6.cc.monash.edu.au
>>>>"and
>>>>day
celetial
>>>>swim
rounded
>>>hmm
ptolemic
>>>with
copernicus
gallileo
>>>wrong
>anyway
oops
>nor
wishy-
>washy
(the
celestial
bracket
maurice
bucaille
(god
travel
:33
geocentrism
.uiuc.ed
>pardon
>exercising
incarcerate
peoples
thing?
kicking
supply
colony
abundance
basics
sibling
condone
disorganise
garble!
>various
>bandwidth
>orbits
orbits
>describing
neighborhood
>hope
elipse
>geometrical
>planets
>see
rectangle
human-created
>rectangle
seldom
>rectangular
>produces
inspiration
addressing
...each
travelling
existent
>impressive
_do_
surgeon
geocentric
rage
once.
southern
conven
freemasonry
hol
anti-masonic
carrier
amuse
all..
m.d.
ministry
550
10th
beaumont
77706
permission
booklet
provisions
ally
iv
conservative
vi.
formulator
freemasons
toleration
antithesis
dynamic
freemason
unity
fraternity
equality
'great'
sectarian
37
narrowness
sectarianism
cousins-liberty
fraternity-is
subtlest
'father
lodge
repentance
dedication
53-54
<1qvmk2$csk@morrow.stanford.edu>in-reply-to
<1qvmk2$csk@morrow.stanford.edu>
salem@pangea.stanford.edu
bruce
desitter
hyperspace
whatever?
purist
horizon
space-time?
<c5qgm3.dl8@news
>merely
>moral/ethical
_societally_
_acceptable_
_behavior_
>1)who
>2)how
acceptable?
idiotic
)how
position?
>mac
acquaintace
cutting
surviving
testament?
scraps
a.d
130+
4th
325
fathers/leaders
century...no!
autograph
ye
who/where
originate?
>>"clam
stirrer
resemblence
bake'd
>>bob
gonna
<sandvik-190493224221@sandvik-kent
passive
>unlike
smoking
whadda
smiley
conners
passive-aggressive
shoulder
>type
teasing
>satisfying
performance
artist!
pointles
>circular
name-calling
newbie
point-by-point
lifespan
anonymity
left?
caustic
boob
breath
excretory
>love
earn
>him
daft?
testicle
>our
goddamn
cannibalistic
necrophiliac
assess
timmbake@mcl.ucsb.e
>>jim
hogan
quip
_you've_
>>>thus
>>more
sleeve
>>nah
>>meager
>>faith
>faith?
jimmy
steam!
>>>fine
dispel
>bake
bum
>whispering
delusional!
happily
.hard
much?
>bye
>>[more
slim-jim
bake!
bye!
bye-bye
flintstone
chewable
'official'
vocabulary
place-name
one-writer
archeologist?
collen
andres
grino
brandt
casilla
14801
santiago
agrino@enkidu.mic.cl
<1993apr20.062328.19776@bmerh85.bnr.ca>
*never*
chamberlain
timor
gulf
war?
missiled
nicaragua
grenada
panama
mexico
hawaii
liberate
cuban
citizens
completion
strategic
strip
vietnam?
invaded
mexico?
missile
hawaii?
spain
connotation
island
peace-nik"
*doesn't*
masturbate
guns'n'ammo"
peace-nik?
peace-at-all-costs
czechoslakia
poland
avert
slavs
dissident
peace-nik,
heel
peace-nik
legitimately
point-of-view
militate
hypocrisy!
warmonger
_millions_
cheering
dk
josef
out!
savior
keresh
alive!
word!
acooper@mac.cc.macalstr.edu
apatheist
lutheran
gate
spirit"
disturb
eager
cop
smile
swallow
unconscious
exposition
resemblance
long-disputed
structuralist
<1qvabj$g1j@horus
#writes
#cobb
#am
#from?
#whatever
mandate
crude
broad-brush
over-enthusiastic
mores
#>#merely
#>#moral/ethical
#>#1)who
#>depends
#doesn't
irrelevant?
#>#2)how
#on
ideally
#>#3
#>by
#>are
jail?
#>necessary
#why
interfere?
jail
freedom"
permissible
#>that
term?
#>get
honour
#>come
thus-and-such
23:52
:11
<frank@d012s658.uucp
<1993apr14.102810.6059@monu6.cc.monash.edu.au>
>>#in
<2943656910.0.p00261@psilink.com>
>>#>are
>>#>the
timor?
>>#>massacres
>>#>democratic
northern
>>#>democracies
>>#>they
democracy?
>>because
>>democracy
timorese
_democracy_
>democracy
indonesia
portguese
>forcibly
annex
>died
>portuguese
>recall
>fought
>coincidental
secession
aceh
brutal
dealt
secessionist
armed
benny
murdanus
>>ok
>>imprecise
inexcusable
flamethrower
koresh-fetesh
compound
noon
>remember
dry
jerky
fetish
<c5prca.590@news
cobb)says
<11836@vice.ico.tek.com>
>cobb
>choices
us?
meddling
...most
much...at
unquestionably-miraculous
...speaks
<c5r8vh.ai7@news
>coherence
>societally
sociology
discipline
micro
ervin
goffman
"deference
demeanor
_interaction
ritual_
theoretical
_frame
analysis_
academic
boredom
heavily
jargon-laden
unreadable
setting
systematized
socially
interpersonal
realtion
inter-
renego-
tiation
exemplar
siemon
window
mls@panix.com
tear
scald
mls@ulysses
.att
crooked
-standard
disclaimer-
<930414.121019.7e4.rusnews
>><mathew@mantis
right-thinking
iraqis
oil^h^h^hkuwait
hurrah
hurrah!
iraqi
over-exaggerated
exploit
anti-war
emotionalism
geographical
area?
casualty
army
duration
statistic
combatant
korea
media"
cb
nbc
abc
cruise
surgical
bombing
blanket-bombing
ww2?
bemoan
hasn't
appalling
wholesale
bomber
harris
*all-out*
japan
squash
hundread
slavic
descent
fire-bombing
regret
misidentified
entrenched
*that*
depose
"entrenched
well??
tibet?
iraq
misguided
misjudged
hussein
oil
judicious
concerted
*hussein*
off-base
intent?
christian?
gobble
conquest
appeasement
ww2
appeasement?
two?
alliance
czechoslavkia
happening
dresden
hamburg
grandiose
quest
reich"
stem
diplomacy
wimped
baghdad
357
naught
incisive
tibet
particular?
rodney
*why*
verdict
*policemen*
king!!
*their*
officer
juror
allegedly
shallow
foaming
policeman
video
tape
policemen
defenceles
revered
soon??
kidding.
secret?
*neither*
prosecution
explanation?
hallucination?
mind-control
faked
footage?
baffled
bodily
commentator
*intent*
seed
defeat
overconfidence
shalt
kill..
brown
vein
<1qv7q5$fn4@horus
|frank@d012s658.uucp
|>#>#theism
correlate
|>#>#belief
fanatism
|>#>correlation
causation
|>#>the
|>#>route
thurle
clonmel
|>#>irish
roadsystem
|>#correlation
|>#the
|>#is
(sorry
|>huh?
barking
mad?
|hardly
|>(1
fanaticism
|theism
|is
|argue
|have
loook
|to
ayn
rand
gullibility
indicator
manipulator
tar
brush
warm-up
censorship
farm?
|>(2
useful?
|irrational
|been
|the
|not
glaring
axiomatic
|compared
|their
antirational
*which*
theism?
affinity
|more
formalise
decay@cbnewsj.cb.att
dean.kaflowitz
<c5lh4p.27k@portal.hq.videocart.com>
jsn104@psuvm.psu.edu
blashephemers!!!
god!!!!
damnation!!!
thumper
hellish
>umbrellas
gel-pack
coleman
cooler
sue
balance
sneaker
sony
>watchman
carton
bonton
cheddar
>popcorn
ton
ammunition
70-80
alan
deguzman
calvin
evolution/creation
theory/assertion
fact/fiction
nessage
bodies!
watchman
<c5pxqs.lm5@darkside.osrhe.uoknor.edu
<c5pxqs.lm5@darkside.osrhe.uoknor.edu>
>dean.kaflowitz
discussing
legendary
story..
...a
belief...whose
uncritically
qualify?
oxymoronic...a
atheist-views
uncritical
legend
>christianity
sinned
procede
launch
myth.
>salvation
>everyone
instinctively?
literate
controversy?
re-read
...i
>means
-not-
-everyone-
...should
across?
>refuted
species-wide
>unknown
short-story
dionetic
biblical-philosopher
>freedom
>ignore
bzzt
...wrong
answer!
exert
undeniable
supermarket
tabloid
comforatble
>always
philosophic
tendancy
wishful
eminent
>reasonable
reasonableness
eminence
basing
eurocentric
<1993apr20.053355.19185@bmerh85.bnr.ca>
>anything
>spherical
flat?
sphericity
truelove
leftover
turkey
casserole
[days
hut
commercial
m*tlu/a*gic
bait
container
ionise
luckily
gravitational
heisenbergian
chemist
heisenberg
simplify
diagram
marking
valence
_chemists
_physical
chemistry_
*got*
kidding...
_confined_
visual
radial
angular
wavefunction
<930420.101210.8y7.rusnews
>harmless
beneficial?
westerner
coherent
combined
policy?
>james
>[fine
sentiment
sarcastic
>innuendo
forgets
_whines_
innuendo?
forgotten?
tease/taunt
faq-less
church!
line-by-line
shovelling
lament
satisfaction
abuse-heaping
...there
wholesome
memory...
alyosha
karamazov
dostoevsky
<1qibo2$f4o@horus
.ap.mchp.sni.de>frank@d012s658.uuc
>#>in
>#>dangerous
wary
>#>any
stripe
>#i
>fair
>agnostics
mea
culpa
sing
chrisma
carol
marginal
>#>few
>#>more
>#>lord
>#>motivation
nonsense?
mom?
>patriotism?
freedom?
swimming
kim
basinger
mel
gibson?
evil?
dieing
coincidence
ist
often?
<1ql0d3$5vo@dr-pepper
.east
geoff@east
bos
.h
coast
>posts
>saved
.atheism!
hee
say...
>>>this
>>>or
>>>by
>>word
>picked
hanging
strangle
psychologicall
.wwc.edu>bissda@saturn
fr
broaden
<1qiu97innpq6@srvr1.engin
.umich.edu>ingles@engin
.umich.ed
jesu
skim
*in*
any..
martyriologia
grimms
pragmatics
subjectivis
subjectivismis
abhor
catalyse
>etc.
>into
redefine
hear?
dkoresh@branch.davidian.compound.waco.tx.us
alt.messianic
<1qvh8tinnsg6@citation
.ksu.ksu.edu
yohan@citation
jonathan
>>merely
>>moral/ethical
>individual
decide?
>>1)who
>>2)how
>generally
>>3
moral"
decendent
cain
mc
him.
>hawaii?
>spain
coup
spanish-american
>desitter
>looked
>within
confine
infinate
ockham
holographic
partical
<4949@eastman
dps@nasa.kodak.com
delusion
smug
<1993apr20.004119.6119@cnsvax.uwec.edu
>[reply
cobb)
>>right
>>mandated
>>doing
priori
>elses
>entitled
>offensive
how?
want?
disagree?
lay
>internally
sociopath
innate
lean
>thus
buzz
>david
ssauyet@eagel.wesleyan
you...
dean
thump
babble
ms
mete
representive.all
duh
boring
spot
uninteresting
meager
<930419.115707.6f2.rusnews
mathew>><mathew@mantis
entrance
gizmo
taped
bunker
stomach
maim
warfare
pro-gulf-war
hqs
maimed
hypocrite
a-bombs
surrender
hiroshima
nagasaki?
peddle
conspiracy?
fortress
truk
inpenatrable
could've
junta
ulimatum
nuke
jap
gas-guzzling
prompt
back-water
policman
imminent
unprovoked
genocidal
strawman?
strawman
ineffective
conquest?
democratically
nsdap
43
1933
wrongful
regretable
the-way-it-is
dictatorship
journalist
self-destruct
moved
chinese
mandatory
sterilization
tibetan
amnesty
suck
deplorable
erm
trial?
cross-section
locale
held?
venue
allegation
nuremburg
life"
defendent
granted
prevail
macneil-lehrer
balanced
rush!
conspiracy"
*far*
all-pervade
saturation
*morally*
don't!
criticise
defer
love?
ivan
stang
puke!
discourse
industrial/military
precision
stink
*in
of*
proportionately
suffered
iany
minimal
raid
bunk
230,000
serviceman
*civilian*
months!
that!
hogwash
fell
bit-bucket
vanished(though
slighted
conversational
<1993apr08.174942.45124@watson
>"face
rabbi
schism
influential
heretical
stability/success
surrounding
savage
inhuman
symbolical
tent
statue?
idolatry
...scissors
cloth...
barbarism
transition
civilize
teeth-rending
post-facto
dehumanization
river
dwelling
hammurabi
retribution
moses'
3000
parochial
>overwhelming
>we've
revere
artist
musician
humanitarian
>separate
>done
belittle
'tribe'
romany
reflective
flexible
1943
captain
comic
babylonian
fallingbetween
<114525@bu.edu
promised
zakaria
>taken
_muhammad
penguin
'91
controversial
apologetic
historicity
episode
orientalist
watt
dug
girl"
gibreel
farishta
>imagination
crisis
actor
woven
magdalene
arthurian
mythos
grail
wandering
dozens
haroun
storyteller
ridicule
integrity..
mahound
integrity
impugn
archangel
provenance
*not
voice*
classy
vision
stare
lip
whom?
postman
yaar
butbutbut
manipulate
gibreel?
satan?
else?
explore
forceful
exploration
filth
got"
.umich.edu>
folklore
rumor
apostle
martyr
lie"
willingness
recant
proposed
recanting
martyrdom
[see
1kings18:20-40
450
baal
bucket
furor
libel
malevolently
kempf
out-of-context
readership
book?
itjust
<c4w5pv.jxd@darkside.osrhe.uoknor.edu>
>[some
generalism
misplace
needn't
materialism
mechanistic
prerequisite
considerable
childhood
>nervous
gobbledygook
stimulus
>weight
faq-reading
coexistence
unequivocal
hominem/poisoning
<1993apr19.141112.15018@cs
a.wainwright
warehouse
cooking
sold
convinced
<30147@ursa.bear.com
>>adpeters@sunflower.bio.indiana.edu
>>[bill
_and_
exponent-based
anagram
tunnel
deep!
everywhere!
coming
struggle!
>you'll
mao
gulag
mao-atheist
schaertel,,
work?
fearful
suspension
guidance
easier?
seduce
she'll
use?
_am_
right-o
_accept_
unwise
omnipresent
guiding
aaaahhh
camps?
mm-hmm
schedule
course?
arm
shortsightedness
>timmbake@mcl.ucsb.e
>honest
swear!
>hmmmm...i
...alternating
>rude
...coming
...calls
...whirrr
...click...whirrr
equality...whirrr
...see
below..
_the_transcedental_temptation_
kurtz
mormonism
-scott
craze
translation!
selling
cake
reads
japanese!
sympathize
shake
>heads
ranting
gad
crt
phil
trodwell
ram
goddam
440-volt
cattle
rend
prophetic
andi
still-active
old-timer
rot
ship
<1qi156innf9n@senator-bedfellow.mit.edu>
tcbruno@athena.mit.edu
800+
hiatus
rubber
seminary
getthe
612
696-7521
waco
my>
scorn
semitic-western
quell
sect
pantheism
amazing
guise
interpretation"
quintessential
values/beliefs
event/experience
deablable
framework
testing
invest
*fairer*
bias/responsibility
losing/retaining
``christian
philosopher''
visiting
prison?
constrain
nuance
mass-oriented
``religion
visible
--webster
colour
skin
`just
because''
similie?
philanthropy
humanist?
supernaturalist
poking
...but
todd
kelley
tgk@cs
.toronto.edu
toronto
<930420.100544.6n0.rusnews
<930415.112838.9p4.rusnews
#can
chase
realtivism
elevate
heinous
elevated
#standard
<115694@bu.edu
>>deviant
_as
articulated
above_
contradition
obfuscationist
sophistry
religionist
obfuscationism
variance
<116003@bu.ed
>>piece
>>propaganda
>>don't
>>effect
>>providing
'it
propganda
so'
replying
flippant
antagonistic
propaganda?
_least_
estimation
ass!
impaired
bail
discomfort
vindication
elijah
forthcom
swift
seizure
wee
pitiful
sap
darwinism
neck
giraffe_
book;
john!
<c5qt5p.mvo@blaze.cs
<115694@bu.edu>
>>>deviant
>>practicing
>easy
smily
poke
_all_
>(or
heliocentric
galacticentric
hotly
stereoisomerism
suffice
engender!
resemble
lifeform
primordial
contamination
primitive/simple
abio
possession
bbio
discrepancy
modifiable
acker
jgacker@neptune.gsfc.nasa.gov
swimmer
flaccid
venous
oxygenate
arterial
13:39:39
coexist
scrict
censure
voluntarilly
policing
years?
dissengage
byproduct
institutionalize
can\
squeamishness
max
impinge
persue
territoriality
dominance
socialized
consent
roll-back
stabilize
darwinian
stability
indiv
stable?
non-stable
out?
ps
>hunt
pooh-poohed
f-ussr
vessel
airforce
non-us
tank
arsenal
m113s
knows"
mccullou@whipple.cs
m^2
turn>i
reread
atheis
>imply
>>win
large?
stating
_assumption_
_positive_
flamage
clipper
project
paranoia
seep
clip
btw?
>millions
documentation
afix
>fist
threw
>managed
hammer&sickle
unappreciated
wrought
crow
>suppossed
crows/unicorns/elves
unique
>>themselves
>another
>talking
>final
>present
fasion
>assumption
<1993apr20.154658@iastate.edu>
kv07@iastate.edu
warren
vonroeschlaub)
<lt8d3binnj1g@exodus
>(eric
>salem
>>>from
>>>desitter
>formed
>towards
curving
>excessive
>travel
>infinity
heat
__l__
vonroeschlaub
1r1cl7innknk@bozo.dsinc.com
hemingway
carl
orff
gogh
sur
elf
elve
inch
frank@d012s658.uuc
o'dwyer)
moral>>truths
>undefined
undeserve
>reply
undefinable?
subjectivism
evaluative
ditto
'self-evident
truths'
perceptive
prof
flew
subjectivist
self-evidence
>>mind
beholder?
subject/object
nihilism
irrepective
relativism/subjectivism
winds
nihilist
*except*
>>true
noterrorism
>preferences
terrorisim
>noterrorism?
ditch
kmr4@po.cwru.ed
ryan)
risen!
>spread
jeez
poll
ivy
league
indentify
thegeneral
intelligent?
younger?
future?
timmbake@mcl.ucsb.ed
>...the
post>in
anti-christian
courtesy
transparent
pretending
>emotional
>...just
*didn't*
jimh@carson
.u.washington
hogan)
prediliction
shit-shoveling
the>latest
arrival
discourse?
flame-fest
tugs-of-war
entertainment
entertaining
<1993apr19.203616.21280@organpipe.uug.arizona.edu>
ece_0028@bigdog.engr.arizona.edu
anderson
<930419.103239.5m4.rusnews
>prove
cogito
_think_
lefty
lefty@apple.com
c:.m:.c:.
d:.o:.d
>>whirr
click
whirr
...frank
shell...pop
stack
...whirr
...click..whirr
>>"killfile
maddus
sound-o-geek
killfile
half"
instead(on
10:48
:19
+0100
film
manufacture
noam
chomsky
>media
festival
>year
>ordering
reviewer
>political
activism
reader_
peck
pantheon?
05:23:15
>>remember
self-defined
non-verbally
non-consciously
oprah
winfrey
increasing
litigation
exceed
infusion
strengthening
cultures'
domesticated
abhorrent
multicultural
definable
global
instantiate
enforcable
'nonickname'
<1993apr20.103345.2651@nuscc.nus
.sg>
10:33
:45
<93106.155002jsn104@psuvm.psu.edu>
<jsn104@psuvm.psu.edu>
>arrgg!!
*another*
those?!
>dear
>please
>meng
>tan
>singapore
>cmtan@iss
on-coming
dear
these!!!
013423tan102@psuvm.psu.edu
andrew
->in
<1993apr9.151914.1885@daffy.cs
->(mark
->>in
<monack.733980580@helium>
monack@helium.gas
.uug.arizona.edu
->>n->>monack)
->>>another
->>>recite
->>>prejudiced
->>>at
->>>what
->>>affirmation?
->>>dave
vishnu
zue
odin
obnoxious
sverdrup
technology,inc
216-891-4019
cleveland
ohio
44135
jfelder@lerc.nasa.gov
kin
superman
sycophantic
saint?
bill...?
sheesh
non-sequiteur
thinking?!
hwyl
fawr
manner?
`truth`
subbornly
isyour
'higher
truth'
's?
peoples'
science?
open-minded
*flexible*
aethetic
forward!
jee-zus
bissel
pie
stamp
evangelize
matthias
barnabas
forjohn
heteroorthodox
<1qm36b$gn2@horus
>#>and
>#>valued
>#twaddle
>#that
>#a
>procedure
tail
ensuring(more
sequiter
>valuations
quite-sure
'subjectively'
>#like
>#not
>important
>meaning
byte
ecb
desing
time--whether
734849678@saturn
->makes
->lunatic
->writes
name?
->modern
trifercation
explaination
jc
amalgam
->die
->gathered
->someone
->heal
pursuasive
fake
rememer
compeling
->to
->anyone
->this
->real
tri
quad
proceeding
presentent
inclusive
base/basis
mccoy
->the
->and
->write
fullfill
fullfilled
->is
->should
->sake
->same
->over
->just
->time
->it
->a
->carried
->ourselves
xian
entirity
02
:51:29
trh>
courteou
pro-christian
jesuit
word?
thousands
hubbard
con-artist
dianetic
scientology
baker
swaggert
televangelist
advisor
entral
europe
*wrong*
mccreary
,__o
edm@twisto.compaq.com
05:10:18
rb>
<ofnwyg600wb699voa=@andrew.cmu.edu>
pl1u+@andrew.cmu.edu
>baptism
scotsmen
kilt
tweleve
roomfull
underware
football
menacing
<9454@tekig7.pen.tek.com
<1993apr12.213633.20143@levels
.unisa.edu.au>
21:36:33
+0930
tdb>
<1993apr15.125245.12872@abo.fi>
mat
x-ist
saucer
aliens
tattoo
666
*inherently*
mundane
$10
bidder
bid
second-highest
j.r
dobbs
'sfinish
<1993apr15.111713.4726@mac.cc.macalstr.edu
a>
..stuff
...more
hook
1987
1988-89
means>>when
suffering'
sadist
'5
12'
analytic
action-guiding
vord
unhelpful
synthetic
>her
parentage
immigration
>>born
respect?
>go
<1993apr16.010800.11056@scic.intel.com>
>>theory
>fiable
>seth
>internet
>emergency
>hand
install
innards
-michael
o'brien
<1qlapk$d7v@morrow.stanford.edu>
endless
non-life?
all-wise
imaginative?
<kmr4.1593.734933711@po.cwru.edu>
question/comment
uncaused
whew!
oughta
<c5jxru.2t8@news
>>couldn't
were?
legality
abhorrence
deceipt
disrespect
cowardness
unfalsifiable
punt
<930416.141520.7h1.rusnews
14:15:20
m>
16th
fed
evasion?
woods
catholic?
<kmr4.1563.734805744@po.cwru.edu>
<1qgbmt$c4f@usenet.ins
.cwru.edu>
cr866@cleveland.freenet.edu
kirschner
religions?there
inbreed
>#i'm
>#when
>#be
>#give
value,
_moral_
definiton
<c5s9zm.9e0@cbnewsj.cb.att
hell!!!
13:11:38
>eternal
>dean
kaflowitz
nicest
boxer
shorts
spf
45+
sunscreen
bathing
towerl
veggie
hotdog
bonfire
cookout!!
dean?
invited!!!
<1993apr20.114137.883@batman.bmd.trw.com
>back-water
>saudi
>interests
ex-pentagon
analyst
>war
>kuwait
mid-east
concession
battle-test
tech
toys
magnitude
sizable
home?
dictator
noriega
graduate
<<<use
v2.0>>>
homeland!
====t=h=e=r=e===i=s===n=o===g=o=d=========t=h=e=r=e===i=s===n=o===g=o=d====
bluelobster+@cmu.edu
deeper
r&d
seamless
existence?
'outside'
neverness
'meta-exists'
meta-existing
cosmogenesis
lizhi
shuxian
'nothingness'
transcendental
nothingness
'when'
'meta-existence'
'meta-god'
timescale
knowledge?
orwellian
-necessarily-
opt
side?
disapproval
conformance
substitute
nebulous
standard?
'standards'
ignore?
hard-wired
malleable
preferred
universally
nre
oppressive
inclination
do"
irreconcilable
>>>merely
>>>moral/ethical
>>individual
dissapoint
interplay
ethos
self-generated/learned
mental/verbal
impure
>>>1)who
gender
>>>2)how
>>generally
>>>3
hearty
two"
>>>mac
g.k.chesterton
one-
spiral
weigh
fulfill
hyper-morality
vegetarianism
possible!?
--adam
>>[reply
>>>right
>>>mandated
>>>doing
>>own
>>elses
>>basis
>>believe
>>entitled
>>offensive
>>internally
<healta.161.735350336@saturn
>sunscreen
nudist
upstanding
nudity
5:4
begat
felicitation
ho-stuart
incestuous
test--
acooper@macalstr.ed
>mccullou@whipple.cs
initiative
phones
crypto
de-facto
scare
nsa
nist
s1
s2
wiretap
simplified
sci.crypt
18:13:09
rake
<bruce@cortex.dixie.com>
>mcgoy@unicorn
.acs
.ttu.edu
mcgaughey
>oh
nevermind!
>r
manager
>elekta
instrument
executive
suite
809
atlanta
30329
>voice:(404)315-1225
fax:(404)315-7850
bruce@elekta.com
alabama
bryant
coach/god
.toronto.ed
>chest
bad.
davidian
messenger
zealotry
>rationality
irrational?
>whereas
>beliefs?
>similarly
parole?
pistol
urine
8^
infidel,
non-<insert
affiliation
here>
waco."
conscientious
peacenik
zealot
jonestow
<1q7kc3$2dj@csugrad.cs
.vt.edu>
>km>
hilariou
overthrow
>self
lavey
sucker
maximus
2.01wb
anton
satanism
arthur
lyons
america.
interview
mishmash
rural
ritualism
witchcraft
orthodox,
combine
reich
slap
p.t
barnum
christen
heyday
celebrity
sammy
jayne
mansfield
way.
heritage
esteem
<1993apr20.160519@iastate.edu
>>treated
hitchings
evolutionist
>informationless
ticknor
connecticut
1982
paperback)
unifying
quarter
biol-
ogy
neo-darwinism
sensational
script
scien-
tific
credential
royal
archaeological
acknowledgement
paleontologist
jay
gould
endorse
dawkins
char-
latan
giraffe,_
silliest
paranormal
of...
bbc
_contemporary
103
208
psychical
dowser
writ-
ings
_earth
magic,_
_dowsing
psi
_mysterious
atlas
unexplained
_fraud
mischief
supernatural_
_instead
darwin_
hitch
dar-
winian
young-earth
ref-
erence
_creation/evolution
newsletter_
15-16
september/october
january
1983
74
anti-
hail
cre-
ationist
malcolm
bowden
fraud_
cull
informa-
tion
favorable
coffin
da
davidheiser
dewar
gish
morris
segrave
whitcomb
wysong
anti-darwinist
_ape-men
fallacy?_
lifting
illustration
acknowledgment
plagiarism
hitchin
[sic
view-
end,
paranormalist
book]
magic_
megalithic
struc-
ture
cataclysm
atlantis
pyramidology
dowsing
miraculous
feuerbacher
alanf@atlas.pen.tek.com
<1qu485$58o@horus
<1qkovl$k@fido.asd
#false
#each
past*
avowed
#sorry
#posting
#original
double-talk
*quoted*
<1993apr19.121340.3133@monu6.cc.monash.edu.au>
<1qi191$jkj@fido.asd
blasphemy
little-used
_anglican_
uk?
approx
*liked*
bombay
delhi
indian
butbutbut,
hindi
sorta-kinda
flap
persona
grandfather
thundered
oop
agent?
she?
smoke
scribe
screw
say-so
>posters
kampf?
of?
protest
outrage
atheism!
-s
shamim
mohamed
{uunet,noao,cmcl2..}!arizona!shamim
shamim@cs
.arizona.edu
garlic
mezuzah
zen
lpf@uunet.uu.net
singularity
mitchner
thorne
wheeler
_gravitation_
<115793@bu.edu>
<1qla0g$afp@fido.asd
>bbci
>operators
bcci"
<1993apr19.124834.5640@monu6.cc.monash.edu.au>
_invests_
venture
_lends
management
so"
<1qnpe2inn8b0@gap.caltech.edu>
clause
>rest
1689
*changing*
*thinks*
>inflict
injury
prevarication
<1993apr17.041535.7472@bmerh85.bnr.ca>
<1qnedm$a91@fido.asd
<1ql8mdinn674@gap.caltech.edu>
mander
sacred_
binding
iroquois
confederacy
marx
engel
classless
noncoercive
u.s.s.r
pasta
<1qnp13inn816@gap.caltech.edu>
>behaviour
point!
renaming
<1993apr17.080321.18675@daffy.cs
<1ql9a6$afp@fido.asd
modifier
zeno
paradox?
velocity
dialation
spiraling
any-
rediation
horizen
conservation
albeit
asteriod
evaporate
flash
explosion
evolution!
<66615@mimsy.umd.edu>
>versions
prone
exaggeration
1935
masoretic
targum
translations/commentaries
aramaic
septuagint
faithful
"obvious
fixing
/predating
corrupted
variation
signifcant
import
antecdent
dss
theologically
lurk
textual
<ofp1qp600vpdinppwh@andrew.cmu.edu>
>timmbake@mcl.ucsb.edu
>besides
>wonderfully
>extremely
behavoral
<c5sncl.j8o@usenet.ucs
.indiana.edu>
>evolution
>--andy
apt
_call_
vector
overtone
halat@bear.com
>todd
>whichever
_knowledge_
_possibility_
sufficent
occupy
_everyone_
schaertel,,,
i;m
chap
bastard!
given?
eaplain
self-important
<1993apr19.112008.26198@monu6.cc.monash.edu.au>
<1qi3fc$jkj@fido.asd
<1993apr14.110209.7703@monu6.cc.monash.edu.au>
rice?
write?
_islam_
bringing
"thread"
fuel
consumption
bread
<1qugin$9tf@horus
<1qkogg$k@fido.asd
#critical
#easily
#beside
<1r2eba$hsq@csugrad.cs
.vt.edu>>i
``faith''
faculty
irrationality
>>whereas
``the
ways''
``god
said''
unflawed
holds
****and***
none---it
job!
easier
`he
jewish''
parents''
``this
>mass
taxpayer
<1r1mr8$eov@aurora.engr.latech.edu
ray@engr.latech.edu
satisfied
supernaturalism
naturalism
loud
``godlike''
vociferous
announced
``i
gravity,''
naturalist
``boy
thunder
contend
>reasoning
hedonistic
>condemned
>less
gossip
god-ordained
>orders
gideon-like
>behavior
abram-like
delusional
consentual
methodist
>non-christian
<1r1mr8$eov@aurora.engr.latech.edu>
_no_
theists/atheists
joking
argument"
contradictorily
-makes-
particlar
compulsion
edict
contadictorily
grammar
nest
outrageous
purpsoe
exaclty
spbach@lerc.nasa.gov
madalyn
murrey-o'hair
fallacy?
<11838@vice.ico.tek.com>
spank
lewis?
origen?
understand"
exalted
heavenly
afterlife
promising
slaves
non-romans
rapid
amateur
sociologist
sub-branch
unwary
annoy
shit-stirrer
nom
d'net
wade
dead-on-the-money
repsonse
stir
characterization
kinder
generous
veritable
paragon
gentility
paired
admire
tenacity
-i'm-
kiss
contardictory
propriety
ecomplaint?
notional
posterior
pitch
`divine
component'
satisfactory
simple-minded
unscientific
anti-intellectual
straightforeward
non-essential"
comprehend
lobotomy
frontal
lobe
tough
<1r0m89$r0o@horus
<1qvu33$jk3@kyle.eitech.com>
<1quokn$c49@horus
<1qktbg$bmh@squick.eitech.com>
>#>#no
>#>#it
>#>if
>#>conclusion
>#believe
>#opinion
>popular
>sun
>assumed
yourgravity
>mygravity
>both
'matter
fact'
*raw*
dial
1.2"
"i
statue
>move!"
raw
error-prone
'raw
facts'
good/evil
cruddy
modification
"it
if...
ought"
>objectivism
supermajority
trust--to
extent--
1.5
'good'
predictor
bogus
>#>#>better
>#>#nope
>#>i
>#>nothing
>#>making
>#no
>#which
mind-reader
cf
>below
snip
hmmmm...i
clam
q.e.d
reel
<11862@vice.ico.tek.com>
ouch
'irony'
<11867@vice.ico.tek.com>
<edm.93apr20145436@gocart.twisto.compaq.com>
stock
archetype
finn
reason"
stacey
cleanlighted
dalton
educate
thriller
blunt
200+
>_government_
censorship?
one-stop-shopping
>that'll
_does_
for?
theatre
sale
jan
rofekamp
402
notre
dame
h2y
1c8
514
844-3358
844-7298
telex
5560074
filmtransmtl
zeitgeist
212
274
1989.
<1qu03p$442@horus
<1qsili$fme@fido.asd
#you're
#your
situational
#how
#x
thus-and-so
obliged
doublespeak
pacifism
pacifist
<1993apr19.151902.21216@st-andrews
nrp@st-andrews
norman
paterson
<1qlvh1$fh0@horus
>x
re-label
*least*
>mind
lower-level
pronounce
beast
discussion?
alpha
centauri
<1qukq0$b18@horus
<1qkna8$k@fido.asd
#where
#members
ho
hum
randism
#salesmen
#jesus
aristotle
<1qu85s$6j0@horus
owns
plause
derisory
imnpair
competent
educated
end-point
pebble
big"
context*
"tiny
micro-biologist
serbian
<c5rekj.49y@darkside.osrhe.uoknor.edu>
>folks
o'hair
chick
a.a.
rejecting..."
non-roman
>sociologist
>unwary
erich
fromm
christ_
continent
out-of-hand?
scholarship
mid-1700s
deliberation
1754
albany
confederation
withstand
psyche
creat
forty-two
confederate
achievement
thing...if
savages[sic
subsist
indissoluble
grinde
convene
delegate
hammer
acknowedge
donald
grinde,jr
riverside
nation_
21:12
:55
carolyn
jean
fairman
<cfairman@leland
>agrino@enkidu.mic.cl
>>later
bom
>civilization
aroun
steel
sword
_free
inquiry_
winter
83/84
smith
latter-day
worldwide
5.2
fastest
converst
puritanical
outlook
preachment
authoritarian
orthodoxy
tobacco
alcohol
coffee
lake
wealthy
utal
well-know
ezra
taft
benson
secretary
agriculture
osmond
mariott
hotel
high-placed
1830
hieroglyphic
bury
moroni
_book
mormon_
god,
hebrews
settle
600
b.c.e
baptize
reunite
decease
non-mormon
proxy
outcast
mainline
fraud
band
palmyra
westward
1844
agry
brigham
reported
eighty
zion
polygamy
nineteenth-century
muhammadanism
extensive
bu
sterling
mcmurrin
super
/666
/@/----0-~-0
-c---->>
jimtim
p00168@psilink.com
ernie.princeton
justifiable
<11857@vice.ico.tek.com>
18:25:08
<c5qllg.4bc@mailer.cc.fsu.edu>
mayne@cs
quake
scheduled
corroboration
5.7
veracity
broadcast
invariable
climatologist(
ithink
profession
iben
browning
madrid
dec.3
missouri
cancel
evacuate
suprise
his?
lican
school..
<735023059snx@enkidu.mic.cl>
14:15:33
cst
>hi!
>studies
>biblical
>discovered
>yours
>andres
chile
hay
mas
realidad
razon
su
profeta
traslate
egyptian-ish
<1993apr20.154658@iastate.edu
gr
misner
r=0
iowa
carver
ia
50011
schinder
goddard
flight
schinder@leprss.gsfc.nasa.gov
jgreen@oboe.calpoly.edu
>q
woman?
confession
>presumably
oath?
<c5prv8.5ni@news
statement!
denominator
doom
creative
<1993apr19.113255.27550@monu6.cc.monash.edu.au>
muslim/christian
pr
sore
>off
khomeinis
free-will
half-truths
descartes'
whispering
deamon
free-agency
outgrowth
excercise
grand-grand
barn
>deviant
practicing
_real_
faking
him/herself
_claims_
worshipper
<1r0fpv$p11@horus
<1993apr20.070156.26910@abo.fi>
#>(mats
chestnut
#>#scientific
#>#some
disagreeing
brevity
offence
#consistent?
#moral
together?
#emirically
that'll
#who
#largish
speak?
#i've
#consistent
compute
#enlighten
painkiller
if..."
relieve
*ideas*
universae
#their
ballgame
#dislike
*opinion*
#them
#subjective
more-or-less
#objectively
above?
#>#(ideally
well-founded
motivated
#>#fact
#>#sometimes
#>#makes
alike
#>#which
if(football
#(accept
hallucinating
#which
#some
drift?
*science*
simple(
#scientific
<1r2ls3$8mo@fido.asd
tag
#would
#statements
#motivates
#same
'force
period'
<1993apr19.120352.1574@monu6.cc.monash.edu.au>
atheists/agnostics
hoopla
<c5reyf.4ce@darkside.osrhe.uoknor.edu>
non-empirical
tune
<pww-210493010443@spac-at1-59.rice.edu>
<c5rgkb.4fs@darkside.osrhe.uoknor.edu>
jacoby
mythmaker
<c5rb1g.43u@darkside.osrhe.uoknor.edu>
underestimate
30-year-old
fraction
vatican?
<c5rlyz.4mt@darkside.osrhe.uoknor.edu>
humanism?
15:01:10
stephens
<bruce@liverpool.ac.uk>
confess
any---indeed
one---but
_man
religions_
nos
comparative
preachy
consume
biggy
aztec
mayas
inca
snuff
pritchard
epic
gilgamesh
23:23:26
>imprecise
<1r2kt7$6e1@fido.asd
#have
#factor
'lack
barp!
alert!
divinely
fallable
message?
align
richeousness
convention?
universial
origen
trancendance
diety
empathy
disruptive
theocarcy
mitigate
nobility
soceity
breakup
precipitated
decidance
redidication
formula
repair
magical
promptly
illness
cracy
murduring
authoritarianism
sonmewhat
thay
sumthe
fundemental
recalling
mutate
influience
pharse
imparative
nobil
<1r2gi8$6e1@fido.asd
#for
#catholic
#was
mainland
diminish
marked
#into
#constitution
poetry
<930419.122738.5s2.rusnews
lpzsml@unicorn
lang
lisp
nil
10:28:20
98
<schinder.735362755@leprss.gsfc.nasa.gov>
>>salem@pangea.stanford.edu
>>salem
>faster
>caused
"time
>event
coordinate
geometry
latitude
longitude
singular
plunge
relativistic
slow-
emit
shone
flashlight"
succesive
red-shifted
redden
exponential
appropriatness
inappropriatness
star"
black-hole
equation
theory..
battin
battin@cyclops
.iucf.indiana.edu
<30151@ursa.bear.com>
bear-stearn
--whatever
you--
nyc
...can
please?!
<1993apr19.231641.21652@monu6.cc.monash.edu.au>darice@yoyo.cc.monash.edu.a
>each
<1r3inr$lvi@horus
>#>football
>#>perhaps
>#>so
>#(rest
>agree
fundamantal
agreeing
>observation?
measuer
intermission
>#for
>#many
tghe
>#does
>stated
>ethics
>#one
>#while
>#with
cogent
'freedom'
>aren't
clutch
fixpoint
unfree
submission
>#further
>#your
>garbage
>#the
<115565@bu.edu>
...deletions
investment
west"
partial
<930421.113347.3m9.rusnews
unmitigated
bilge
obviouslyhas
right-wing
adviser
zbigniew
brzezinski
committee
costing
$100
multinational
coalition
losing
badly
life.
fcnl
perhaps?
regrettable
escapee
limbot
land!
bullshit!!!
ordnance
dumb
pentagon
tube
damage?
interception
scud
35
65
collateral
incarceration
$90
annually
1972
$2.3
$25,000
maximum-security
<1r3qab$o1v@horus
<930421.102525.9y9.rusnews
>#frank@d012s658.uucp
absolut
regress
landmine
dismis
shadow
>satisfaction
squaring
sheer
handicap
1912
andf
1927
haiti
1915
learned
forgot!
sandinista
foment
interven
then-republic
colombia
uprising
dismember
canal
republic
teddy
done!
<4963@eastman
21627@ousrvr
.oulu.fi
kempmp@phoenix.oulu.fi
>|>dan
>|>what
>|>something
>|>know
>|>merely
>|>how
>|>daily
>|>it
>sincere
dividian
irreversible
brainwashing
83
<18apr199317500990@skyblu.ccit.arizona.edu>
<c5p660.36t@sunfish.usd.edu>
>>josephus
>>chips
literalist
insert?
glare
>>out
superb
*nothing*
*two*
_antiquities
jews_
unquestionable
>josephus
>jews_
gung-ho
_antiquities_
fabricate
likely--nor
g.a
`existence'
*cannot
used*
james'
*was
called*
[emphasis
fundamentals
elaine
pagel
_gnostic
*attributed*
....[emphasis
post-origen
in-passing
historiographical
gung-ho"
watered-down
lieu
<1r35oe$hqd@horus
>major
victory
>arms
jet
fighter
>indonesian
straightforward
boo-boo
>mistake
*keep*
*same*
>often
reinforce
profitable
decrepit
>economy
reliant
gov't
contractor
export
non-small
<1993apr17.044430.801@monu6.cc.monash.edu.au>
_blindly_
such"
sunnah"
abu
hanifa
malik
usable
_with
hadith_
al-qur'an
sahih
rashid
el-awum
sedition
treason
spy
subsidiary
wage
mischief,etc
5:33
tafsir
regulation
real-life
interlock
decipher
piety
gestation
dispensing
jaffar
ibn
as-sadiq(a.s
abrogate
obligation
meccan
medinite
delaying
termination
unaware
disjoining
joining
all-inclusive
adjective
precede
noun
obligatory
lawful
unlawful
"why
tafaqquh
9:122)
arose
mujtahid
subdivision
syntax
conjugation
oratory
mantiq
transmitter
rijal
juriprudence
sunnah
awamir
nawahi
particularity
aam
wa
khas
unconditional
abrogator
exemption
precaution
mastery
jurisprudent
pronouncing
blindly
accede
qualified
fuqaha
trustee
god!
shun
madhab
islam"
delineate
requisite
caution
infallible
moderated
soc.culture.arabic
.misc?
<116171@bu.edu>
obfuscation
infallibility
anthoney
kax@cs
algorithm
penrose
'insight'
algorithmic
emperor
physics_
_has_
obviouslu
synthesis
elegans
skarda
chaotical
generator
pre-program
encode
46
nurture
neurologist
neuropsychologist
instability
stroke
haywire
side-effect
neuron
alarming
_brains
computers_
'purpose'
sticky
colour?
'colour'
sensation
choice.
materialist
these?
'green'
time-dependent
v4
cortex
v1
v2
cover?
third-person
neuronal
kalat
stimulation
patients'
septal
stimulate
psychiatric
girlfriend
temporal
embarrass
flirt
therapist
activate
afterthought
consciou
'conscious
350
fruitful
'i'
doesn't?
'see
colours'
neural
handwritten
sorting
doesn't"
swap
idea.
_homo_
'self'
'unitary
evolution'
'u'
schroedinger
'collapse
wavefunction'
reduction'
'r'
'measurement'
scene
superposition
aeon
linear
wadsworth
publishing
belmont
29:187-202
behavioral
10:161-173
<1993apr21.163848.8099@cs
crossword
dualism
non-solution
dennett
<1993apr17.045559.12900@ousrvr
>kevin
which..
introspective
>materialist
crosswords
do-the-sums-and-insert-the-answers
efficiency
'obfuscate'
uncovered
y,'
anticipate
nonsolution
>able
>commands
brain?
>occur?
envisage
'somthe
else,'
imaginitive
'part
x.'
_something_
>petri
fortold
uh?
loony
son-of-a-bitch
*he*
in!
cretins'
tirade
<1r4bfe$7hg@aurora.engr.latech.edu>
jgreen@trumpet.calpoly.edu
coopt
compartmentalise
ideals
><yawn>
wasp
imagining
oppressed
camille
paglia
>stayed
letting
insistent
1968
paranoia?
guns'n'ammo."
oven
enough!
>"in
>senate
>iraq
>loss
deceptive
non-oil
>bullshit!!!
>successful
>passed
~93
80
carpet
enemy
b-52
drops
sortie
clock
aircraft
munitions
proximity
fuse
ss-1
derivitive
~60-70
dod
tonnage
>(er
adonaus
>rfox@charlie.usd.edu
>[discussion
josephu
copist
embellish
overstate
*reasonable*
*most*
fabrication
<c5wi5n
.19v@hilbert.cyprs
.rain
max@hilbert.cyprs
webb
<1993apr16.173720.19151@scic.intel.com>
existance?
>>>tific
>>>creationism"
>>>able
>>>purely
excitement
>cobe
superstition
>resolves
postulating
sorta
>looks
>too
excite
<c5kequ.4xo@portal.hq.videocart.com
deformity
wedlock
deform
stillborn!
do...
'o
7th
known>what
include*
mutton
>books
eloquent
>#>plus
>#>het
>#to
>#truth
>#control
>relative
>*some*
better?
asset
gurus
living?
betterness
non-relativistic
>p.s
allowed|
<c5l14i.jj3@news
creationism"
>#given
>#i'd
_subjective_
unsimilar
minipulate
ultimat
hollow
<1993apr15.163317.20805@cs
<115437@bu.edu>
non-islamic
>muslims
residing
'tried'
>isles
_decision_
tribunal
excommunicate
>mete
>itself
liable
post?
indigenous
anarchism
<c5l184.jo9@news
believable
<c5iwxm.g0z@news
.chalmers
.se>
d9bertil@dtek.chalmers
bertil
jonell
<kutluk.734797558@ccl.umist
kutluk@ccl.umist
kutluk
ozguven
>>mentioned
quranic
>>minute
*din*
communal
protocol
mushriqin
din
forma
assuption
mushriq
inscribe
parlamentarian
government"
idols/gods/dogmas/
suppositions/.
deviation
macro
nostalgia
comb
plea
concensus
career
strategy
authenticity
immanuel
mt
1.21-22)
[mary
'jesus'
g'd
7.1-16]
ahaz
bce
judah
rezin
syria
pekah
jerusalem
capitol
...its
shook..
ahaz...
spoke
sheol
weary
behold
immanuel,
curd
honey
dread
almah,
bethulah
shady
walking
cut-and-paste
prophecy..
egypt
bethlehem
unmention
excursion
liken
moses
infanticidal
rampage
herod
2.15
spoken
cal-led
hosea
11.1
ba'al
incense
omit
oracle
wind
flee
rachel
weep
vacationing
2.17-18
jeremiah
ramah
wailing
lamentation--
weeping
console
31.15
exile
sargon
assyria
722
ephraim
manasseh
leah
judean
children,
connexion
ephrath
infanticide
allude
unliked
reign
enhance
approval
neglect
assyrian
returned--
nazarene
matthean
2.23
...that
nazarenes
tells
samson
13.5
...conceive
nazirite
deliver
overboard
disability
8.17
infirmity
skewed
53.4
servant
borne
sickness
tense
jehovah
gentile
--an
cherish
nations'
reenact
commoner
12.15-21
belove
wrangle
aloud
bruised
reed
quench
smoldering
wick
42.1-4
dimly
bruise
coastland
dealings
judaic
christologic
42
beloved
robbed
plundered
12.40
jonah
belly
whale
sunset
6pm
6am
sabbath
friday
evening
saturday
daylight
week!
unresurrected
crucify
ninth
hour,
3pm
rose,
--even
unconvincing..
counter-convincing
parables--
13.14-16
740
flourishing
6.9-13
`hear
ears
lord?
inhabitant
desolate
forsaken
terebinth
oak
stump
listening
reaffirm
seed/lineage
42.18-25
48.20
49.3
cut-and-pasted
13.35
botch
78.2-4
secrecy
17.14-21
demon
epilepsy
possese
dispossess
epileptic
rebuke
special?
charismatic
rumour
faraway
arthritis
t.v
shroud
lore
sleeping
rumouring
miracles--
anymore
zealous
plan"
pious
with..
lull
of..
ride
donkey
21.5
ass-colt
zechariah
9.9
lo
triumphant
riding
ass-
colt
ass-colt--
comical
sweat
straddle
proctological
dilemma!
bungle
respectable
anger
youngsters
21.16
read?
`out
babe
sucklings
psalms
8.1-2
yahweh
majestic
world!
chant
bulwark
foe
avenger
pen
yhvh
messiah-king
agree--
110
davidic
tempting
faction
adventist
advent
utterance
footstool.
scepter
midst
melchizedek
mistakenly
capitalise
adoni,
capitalisation
adonus
david,
poet
sayings--
enable
bless
crowd
competition
along...
momentarily
pseudo-prophecy
extension
mose
nationhood
fulfillment
8.56
j.c
rejoice
par
forerunner
cling
potter
betray
judas
iscariot
27.5-10
depart
treasury
they..
bought
in..
thirty
bastardisation
zech
11.12-13
shekels
--the
lordly
betrayer
shepherd
presiding
pot
mistranslation
juda
contextual
incongruity
worthles
opposite!
thursday-night
vinegar
casting
27.34-35
...they
mingled
gall
divided
garment
vesture
sour
--not
pollute
jn
19.28-30
thirst
bowl
sponge
hyssop
69.20-28
comforter
lit
drink..
acquittal
blot
quoted
damnation
crucifier
[lk
23.34
do!
bitter
22nd
clothes
felon
erroneous
worldly
plight
1-2
forsake
me?!
groan
stanza
mute
shearer
6-8
man--
wag
him..
12-13
bull
ravening
roar
16-18
yea
evildoer
encir-cle
raiment
19-21
...deliver
dog!
afflict
horn
bull!
encircle
phonetic
ka'ari
imagery
convenience
ka'aru.
palm
forearm
resurrected
scar
culpability
compile
repercussion
"enhanced
investigate
scriptural
piercing
recount
19.34,37
spear
zc
12.7-10
pour
supplication
mourn
firstborn
excontexts
transgressor
arrest
kingship
messiahship
thief
mk
15.27
robber
executing
troublemaker
locking
revile
15.32
23.39-43
railed
messiah?!
us!
yourself!
rebuked
condemnation?
kingdom.
contrive
ruffian
justness
theatrics
avenue
reinterpret
embroidery
embarrassing
synoptic
unfavourable
age?
astray
...you
birthpang
up..
endure
desolation
daniel
judea
tribulation
coming..
tender
wet
pant
sweep
inerrant
away...
apostles'
abundant
22.7
4.7
2.18
22.20
2,000
rationalise
24th
joshua-ben-joseph
--or
trouble--
resurrect
glow
radiance
saviour
fulfiller
brute
forgetfulness
pause
10.34
unformed
void
campello
6000
conventional
decay
manifesto
warrior
spanish
invader
>call
germany?
werner
colleague
illogical
sane
hmmm...
literally
.religion
polititian
<1993apr16.130430.1@ccsua.ctstateu.edu
kellyb@ccsua.ctstateu.edu
witty
steve_mullins@vos
h9r@ra.nrl.navy.mil
##i
##science
baucaille
##but
##for
interlibrary
##in
pre-
##ceived
inaccuracy
##some
by-
##gone
##what
##then
##so
prob-
##lems
logoic
##with
##had
##to
##investigated
##say
##all
narrative
##pour
##while
##holy
rampant
##the
##it)
*none*
treatise
vinayak
dutt
vdp@mayo.edu
contadiction
dispite
x-tianity
07
:06
<1qaqi1inngje@gap.caltech.edu>
werdna@cco.caltech.edu
>investigated
>pour
>holy
>it)
phraseology
"forty
forty
animal"
vagueness
koran!
exodus
21:22-25
miscarriage
23
appoint
25
miscarry
injure
*lex
talionis*
embarrassment
pro-lifer
interprets
birth"
--i.e.
alive--and
abortion?
veiled
mischief.
abort
halt
blashephemers!!
<1993apr16.173720.19151@scic.intel.com
>tific
>creationism"
>purely
<115561@bu.edu>
quicker
sheik
al-azhar
heretics
wahabis
jafar
sadiq
sixth
<1993apr13.213527.3706@ultb.isc.rit.edu>
end-
religion-
tokyo
indefinite
*anywhere*
uneasy
bother?)
negligible
*national*
stroll
beirut
<16bafc876.i3150101@dbstu1.rz.tu-bs
13:15:18
<healta.60.734567658@saturn
>>>sorry
romanic
>>>which
infallable
rc
>>non-believers
cathedra
jesuitic
it!!!
bel
reastful
far!!
<1r8tpi$4pu@dr-pepper
>[this
smullyan
imho.
.sig?
billdboard
jennifer
fakult
cycnicism
responsiblity
>>love
_could_
all-too-often
agreement/love
argumet
him--
wasnt
|>dan
|>i
|>she'll
|>your
|>yet
|>for
|>they
individually-created
wy
|>what
|>something
|>know
|>merely
|>how
|>daily
|>it
nerver
scanty
malarky
manipulate/interpret
autmoatical
philology
goodness,
snub:
trust/belief/faith
enkephalin
religosity
affliction
suchg
_correct_
interest/comments
commited
battling
saying'
enough?'
prefere
condemned
lukewarm
conjunction
'spat-out'
me.--
cooper
population?
reincarnation
stat?
occultish
ease
dn>
before?
adn>
vanity
recomend
intelectual
pamphelet
fundie
wiccan
fanatical
watching
locked
administration
fifteen
behavior?
senator
donovan
beware!
death!
>markp@elvis
.wri.co
pundur
<930415.112243.8v6.rusnews
punk
lsd
>detect
>dismissals
skew
unskew
strive
>>>towards
inextensible
>>>actually
>>>not
coal
electricity
>station
nonexistent
wolfram
unreason
resonant
ill-defined
transcendental"
mind"
self"
soul"
"elan
vital"
illogicality
inexorable
primacy
empirical,
pipe
jabberwocky
non-behaviourist
dream?
supplicate
"energy
reductionism
faith?!
acooper@mac.cc.macalstr.ed
turin
turambar
schaertel
[if
right]
appellation
`rabbi'
`scripture'
mat21:42
saith
mat22:29
mat26:54
mat26:56
fled
referred-to
<30147@ursa.bear.com>
>simply
>properly
>specific
>-jim
anachronistic
theory/fact
assertion/fiction
gang
darwinner
$6
news!
6671
blvd.
ste
1525
l.a.,ca
90028
told!
jenny
nurse
laptop
knit
quilt
knee
-k
_chemist_
_seemed
be_
mo
asymmetric
supramolecular
_can_
mcangus
mam@mouse.cmhnet.org
player
>am
advice?
...details
alteer
baghdad...
infrastructure
nitpicking
contending
pesticide
production
officially
*right*
*duty*
destabilize
reservation
uncessary
civillian
casualite
orginal
satellite
troop
aaron@minster
.york.ac.uk
cluster
bomblet
laser-guided
unprecedented
weapons
80,000
56,000
*missed*
proportion
mrl
artillery
napalm
explosive
fae
naughty
indeed?
regardless'
sew
starvation
ju
census
bureau
sack
procedural
technicality
politc
renunify
yemen
assasination
incursion
unluckily
reunification
north?
client
<c5v2mr.1z1@darkside.osrhe.uoknor.edu>
convolute
counterfeit
hmmmm
knock-offs
christainity
-as
stated-
oxymoric
pill
time-and-time
hash
nay
[accusations
a-flyin'
acoording
christain
germane
spewing
[gems
unhip
contemptable
reasonalble
lame
piss
sci.physics
invariant
m0..
sr
m0
popularization
mc^2
0?
cute?
kinetic
gaamma
k.e
1/2
v^2
1)m0
c^2.
invariant!
heavier
momentum
<930423.110254.3i5.rusnews
objects
satire
commentary.
bijou
reviewette
loompanic
1197
port
townsend
98368
mail-order
catalogue
discordianism
libertarianism
cryogenics
money-making
self-defense
awake
140306
dallas
75214
post-human
mutant
scoffer
mocker
1998
jhvh-1
stark
fist
ordain
audio
cassette
cynisacreligious
wierdo
well-organized
slack
556
se5
0rl
wide-ranging
surrealism
wilson
lovecraftian
cyberpunk
forteana
wilhelm
orgone
sae
bribe
tottenham
oddness
loompanics'
1-55950-031-x
dispensationalism
situationism
holocaust
revisionist
sampling
apoplectic
vindicated
socio-political
agenda
teen-age
misanthrope
classmate
cook
ac/dc
born-again
0-671-63810-6
schuster
'roll
stone'
catalytic
suggestive
pee
sermon
simplicity
pocket
monk
erupt
duel
towhether
wristwatch
grace
weirdness
mail"
0-671-64260-x
wierd
ufo
contactee
supremacist
yaw
csicop
enquirer
kook
glee
ache
southwest
1144
oklahoma
73101
flagellating
genuflect
outfit
"entertaining
e.t
dungeons
horrifying
smurf
antichrist
abolition
0-915179-41-5
tract
collect
i|will
insufferable.(*
wages
wages'
rite
eris
pantheon
necrophile
hurting
principia
discordia"
malaclypse
1-55950-040-9
discordian
reprint
entirety
fives
cabal
illumination
joyous
devotive
caremony
remonstrate
paganism
christendom
pork
hindic
buns
willy
0-915179-61-x
illuminatus
rail
pervasive
disposition
merchandise
promotion
arabian
tapioca
w.c
comedy
ore
loompanics
toaster
daddy
<1r98voinnr9q@lynx.unm.edu
>"counterfeit
_need_
[34mand
[35mdeep
thoughts[0m
[32mby
handey
.[0
[36mif
parachuting
parachute
56
proponent
godlike
'god'
meta-exist
omnibenevolence
fluxional
_deus
absconditus_
achilles'
assertions/axioms
maxim
instance?
_philosophy_
oft-heard
'but
god_'
<1r67ruinnmle@ctron-news
<1993apr23.134601.377@ulysses
psuedo-historical
<930423.103637.3o4.rusnews
location
_physics_
speed-of-light-in-
speed-of-light-in-vacuum.
mtabbott@unix.amherst
succinct
elaboration
godless
locution
anthropological
buzzwords
buzzword
abbreviation
unweildy
question/answer
your/your
involvement?
tenet
occur?
ongoing
se
alienation
explanatory
method?
plausibility
forth?
issac
quasi-
element?
filling
abbott
deadline
<1qsnqqinn1nr@senator-bedfellow.mit.edu>
<1993apr18.043207.27862@dcs
>simon@dcs
ockums
baysian
hg
p(h
p(hg
"complicated"
p(hg'
g'
p(anything
irrespective
p(x
preferd
operative
observing
p(a
p(b)
p(
p(b
deploy
prevalence
`spreading
word'
conspire
*against*
non-technical
non-physicist
statistician
`my'
*also*
amenable
verification
nonzero
scatter
expend
*isn't*
bayesian
jargonesque
density
fair"
two-headed
h[heads
t[tails
0.5
p(t
n-1
e[n-1](a
e[n-1](b
x[n
e[n](a
e[n](b
2m
*actual*
multiply
e(
e[0](a
e[0](b
e[k](a
e[k](b
fair-coin
coin"
bin
zeus
`model'
obverse
'x'
ht
0"
positivistic
/p(ha
p(ha
updating
multiplier
p(fair-coin
p(two-headed-coin
*possible*
observation?
x[1
],x[2
god/s"
demonstration
efficacy
`god
*does*
"only
downgrade
*may*
interact"
falsifiability
happen"
efficacious
stats
*consistent*
*more*
"god
measurment
reily
renormalization
$`appearances
god/s'
`appearances
oposition
aserts
asert
falsifable
6,000
decieve
statment
...contd
suppse
not(x
unfalsifiable?
different"
symmetry
exist'
posibility
miricle
recover
missing
rapture
theisms
>>#so
>>#i'm
>>#desires
>>#accurately
_say_
<markp.735230393@elvis
.wri.com>
markp@elvis
.wri.com
>omigod
operationalist!
>explaining
myriad
>"model
notwithstanding
wave?
<c5wo5c.ebv@sunfish.usd.edu>
>>can
>>properly
>>specific
>accept
>objectively
>vs
>rich
anthro
usouthdakota
part?
evolution?
_theories_
objectively..
_facts
retardation
gcse
disappointment
distortion
seemingly
compress
frequency
curvature
spacetime
science/religion
rationalism/nonsense
semi-explicit
often-repeated
incantation
knapp
dk@imager
510
422-1023
98.7
falafel
forgiving
finnish
conform
'curse'
1984
somehere
<healta.140.734925835@saturn
landlord
<kmr4.1696.735588167@po.cwru.edu>
[34mand
[35mdeep
thoughts[0m
[32mby
handey.[0m
[36mif
swimming.[0m
>>frank@d012s658.uucp
>>prove
spud
scharle@lukasiewicz.cc.nd.edu
scharle
anthopological
shrill
bleat
barclay
mckenzie
sham
oehler
jouon
darby
howard
rotherham
vapid
ahha
...now
zealots
hitching`s
gorman
jastrow
stanley
durant
thorpe
witnessing
along?!
infiltrate
certitude
inflamed
warring
niles
eldridge
housecleaning
pg
:53:15
62
utopian
cursory
assessment
optimistic
-all-
utopias
twisting
solitary
hyperbole
<1993apr20.052420.15559@rotag.mi.org>
kevin@rotag.mi.org
darcy
<pww-180493195323@spac-at1-59.rice.edu
<1993apr18.210407.10208@rotag.mi.org>
>darcy
phenomenologist
husserl
intentionality
ontological
masturbation
firsthand
recursion?
*what*
what"
grounding
<116533@bu.edu>
<1r2idi$6e1@fido.asd
>bcci
>propagandist
_given_
stereotype
tap
<16bb9dba8.i3150101@dbstu1.rz.tu-bs
<1r79j3$ak2@fido.asd
performing
crackpot
provocateur?
mozunder
projector
<c5ws1s.7ns@news
<1r4ioh$44t@fido.asd
<930422.113807.7q9.rusnews
snail?
#einstein
#oh
#something
#got
#however
#circumstances
grin
outrun
tail-end
#eh?
#again?
s/an
values/some
disagreement/
#mean
real"
unreal
regress?
#just
possible?
stretching
upside
'possible'
<930422.113530.7w1.rusnews
.co.uk#
grotesquely
#from
#one
penny
#[reply
#>if
#>right
#>mandated
#>doing
#>or
#own
#elses
#basis
#believe
#entitled
#offensive
#most
#system
#internally
frightening
#thus
#may
'sociopath'
'hitler'
'murderer'
>dogma
>philanthropy
would!
<116172@bu.edu>jaeger@buphy.bu.edu
>having
>(benedikt
<115670@bu.edu>
69
re-reading
<c5tx38.av8@usenet.ucs
laurence
>horizon
mis-using
calendar
centaury
concurrent
a.c
_order_
occurance
vicinity
_like_
hover
now"
rotate
volunteer
>#(ideally
>#fact
>#sometimes
>#makes
>football
<1r10jcinnt1g@lynx.unm.edu>cfaehl@vesta.unm.ed
<sandvik-200493232227@sandvik-kent
<1r1ko8$6b1@horus
keen
#objective
#systems
semantic
delta
#maybe
'magical
keen"
_can't_
<1r0sn0$3r@horus
>|>#>#theism
>|>#>#belief
>|theism
>|argue
>|have
>|to
>imo
*a*
>gullibility
>blind
>reliable
>fanaticism
>brands
>|>(2
>|irrational
>|been
>|not
therfore
>and/or
>second
>axiomatic
>used
>|compared
>|their
traditonal
>|more
time/
amalekites/idolaters/protestants
><mathew@mantis
>>harmless
not-x
doubting
noticable
jaskew@spam.maths
.adelaide.edu.a
askew
goody
'policy
forced
tibet'
'policy'
'mandatory'
ethnically
exempt?
peek-a-boo!
devo
citation?
citation
nyaah
gimme
propaganda"
widely-announced
china?
tienanmen
naaah
renewed
<c5racm.41q@darkside.osrhe.uoknor.edu>bil@okcforum.osrhe.ed
>way
sayi
a"arguing
>complexity
manwatching
desmond
democratical
why-is-it-that-way
congressman
renewal
despicable
keener
unbelievable
*objective*
bike
head?
long-haired
glib
aiming
terror
falkland
fresh
<yawn>
unread
lem
bulgakov
zamyatin
anti-virus
>condemn
>supposed
preceed
that...
infalibility
withdraw
abstruse
opaque
camoflage
baselessness
deviant
proscribe
>discussing
illuminate
retain
advocacy
verges
<93112.164435j5j@psuvm.psu.edu>
<j5j@psuvm.psu.edu>
<1r39kh$itp@horus
#>specifically
#>people
#>(a
#>(b
#>(c)
#>(d
#>(e
#>the
#>_can't_
#>aren't
#phrase
unanswerable
correct/incorrect
true/false
#domain
#sense
#legitimate
#let
derivative
percept
#veridical
illusory
#strange
#certainly
#therefore
a)-(c)
sloppy
@correctness
double-barrelled
"rightness
#meaningless
#irrelevant
@really
better@
realistic
dismissal
a)-(d
#neither
#different
ruthles
doctrinaire
avoidance
degeneracy
drunk
bar-lady
_lila_
pirsig
<lefty-220493121708@lefty.apple.com>
<1qtsmc$39j@horus
#"terrorist
#(deletion
#>football
#>perhaps
#>so
#(rest
disinterest
#many
#does
#while
#further
<30151@ursa.bear.com
>>evolution
>>gravity
truth,
predictive
drift
pathway
[description
shoehorn
_existence_
_mechanisms_
cfairman@leland
cjf>
sudy
archeology
archeologist
<lefty-220493122007@lefty.apple.com>
<1qu0f6$489@horus
<30134@ursa.bear.com>
#at
#probably
#really
"objectively
#think
two-year
<1qvtk4$jep@kyle.eitech.com>
<1qu2c9$4o4@horus
#>ordinarily
*value*
#>could
#>though
#no
#estimation
#shit
#science
f=$3
_no-one_
_unimportant_
_except_
unimportant
important"
useful"
worthy"
#>#i
#>#observations
#>#buy
#>#done
#>well
#>on
#huh?
#point
'observed'
'not-quite-sure-observations'
#>#>des
#>#this
#>#seem
#>#accepts
#>#it
#>#is
#>may
dufflecoat
limerick
observational
#case
#assumed
#quantum
reappear
indepent
dabble
abook
jp
moreland
continental
<1r22qp$4sk@squick.eitech.com>
#>#in
#>#>in
#>#>#no
#>#>#it
#>#>if
#>#>and
#>#>conclusion
#>#believe
#>#opinion
#>true
#>popular
#>sun
#>assumed
#>mygravity
#>both
*basis*
peering
uninterpreted
_people_
#>about
#>they
#>move!"
#>one
#opinions
#than
#>now
#>experience
#>more
#>human
#see
inertia
experimentation
#>then
#>objectivism
#>good
#>evidence
#as
#because
#else
#hope
#about
lens
iguana
-norman
>absolute
>[list
jon-
references!
objected
pronounced
halat@pooh.bear
nonscientific
colloquial
allele
moran
>variations
>niles
>housecleaning
78
maybe?
<edm.93apr20145436@gocart.twisto.compaq.com
<sandvik-200493233434@sandvik-kent
.apple.com>date
14:12
:08
06
:38:30
ks>
bluntly
*lot*
browsing
darned
hole-in-the-wall
sigh..
<c5u7bq.j43@news
underpinning
not-so-well
tectonic
immortalize
old-earth
creation--it
>explanations
doss
affilliated
evolutio
>bear-stearns
swanson
<1r3tqo$ook@horus
#>#>|>#>#theism
#>#>|>#>#belief
#>#(deletion
#>#>|theism
#>#>|is
#>#>|argue
#>#>|have
#>#>|to
#>#>imo
#>#>assumption
#>#bogus
#>#the
#>belief
#tiring
conspicuou
#theists
#>#>gullibility
#>#>blind
#>#>reliable
#>#>fanaticism
#>#>of
#>#that
#>#field
#base
onus
sunshine
opposite?
epidemic
camel
needle
land-owner?
#>#>now
#>#>brands
#>#>i
#>#>argument
#>#repeat
#>#fanatism
#>#there
#>no
#>with
#>what
sneak
groping
#bogus
#gives
backup
#theism
specialty
nifty
#theology
#>#gullibility
sherlock
#>since
make?
#causing
#statement
#challenged
#>#and
#>#men
them/us
#>split
#>side
#blah
#protects
slur
#assertions
#>#>|>(2
#>#>|irrational
#>#>|been
#>#>|the
#>#>|not
#>#>well
#>#>based
#>#>be
#>#usefulness
#>o.k.
oval
#>rational
#>at
#>didn't
_refutation_
#>you
#>who
#depends
#triangles
pythagoras
#show
#unreliable
#belief
#rational
#logical
#contradict
#evaluate
#little
ala
ratiional
#predictions
#>#your
#>anybody
#stream
#>#>the
#>#>you
#>#>and/or
#>#>second
#>#>axiomatic
#>#>assumed
#>#>used
#>#i've
#>#of
#>#an
#>#axiom
#>#out
#>#further
#>for
#nope
interweave
#>#>|compared
#>#>|their
#>#>say
#>#using
#>#with
#>imo
#>not
#>intelligence
#note
#>#>|it
#>#>|more
#>#person
#>#b
#>#evidence
#>#says
#>#contents
#>#have
#>peculiar
#>catholic
example?
#>don't
"jail/kill
dissenter
#>entirely
#>axe
grind
#says
#amalekites
#edit
err?
attracting
#fanatics
#>>the
#>>truths
#>>that
#>>what
#>>by
#>this
#>undefined
#>either
#>reply
#>(2
#ditto
#part
question-begging
#>>at
#pretty
#>>but
#>>mind
#please
subject,object
self-evident
beholder
idealist
solipsist
*am*
#>>if
#>anyone
#objectivist
#believed
#>>some
#>>to
#>>true
#>preferences
#>noterrorism?
rep
<735295730.25282@minster
.york.ac.uk>
cjhs@minster
nod
beowolf
<1r9o0s$424@horus
egregious
saintly
*try*
<1993apr22.162239@iastate.edu>
<1r5hj0inn14c@gap.caltech.edu>
probe
>sent
>red
>reaching
>decreasing
exp(-t
horizon?
bh
>apart
column
>skeptical
inquirer
commemorative
stamp?
>petition
snit
schnitzius
schnitzi@eola.cs
.ucf.edu
>nah
grovel?
damm
it/they
whichever
pick)
religon
bliss
bubble
seperate
tappestry
erase
counselor
different?
reborn
indicative
omnipresence
humane
christians/other
contraception
'outlawed'
jsn104
jeremy
noonan
<1993apr16.223250.15242@ncsu.edu>
aiken@news
.ncsu.edu
nmi
>jsn104@psuvm.psu.edu
unattended
slack@ncsu.edu
underwear
consumption!
>po
30904
919
782-3095
>raleigh
27622
hoard
--"bob
freak
jsn104@psuvm
hilt
banger
*vomit*
dining
kampus
krusade
khrist
....except
<735424748.aa00437@therose.pdx.com
.olsen@p17.f40.n105.z1.fidonet.org
olsen
03:25:06
-0800
>rh>
queensland
>>modern
>[rest
falicy?
didnt
plato
jesus'
talmud
>nice
rebutal!
<1r9dd7innqfk@ctron-news
excerpt
gradualism
trilobite
[to
roseneau
<1qv6at$fb4@horus
#>#a
#"there
#more
hs
#address
caricature
point"
needless
outing
pushed
formulation
feasible
dicussion
#again
#side
uptight
tire
threat?
answerable
baseles
#>#like
#>#if
#>because
#restricting
absoluteness
#claim
self-consistent
idealisation
trick"
maximise
compartmentalisation
rival
#>#for
#>#hurt
#>#others
#>wrong
#>against
#judgements
#above
misleading
#>an
#>premise
estate
malahide
#>house
#>using
#shortest
*belief*
*for*
gimmick
>dgraham@bmers30.bnr.ca
nicaragua?
marine
>"invaded
>invading
>view
aggressor
scarce
>czechoslakia
>dissidents
straw-man
>"is
>under
carpet-bombed
infantry
sewer
bulldoze
trench
[or
commander
thrill
risking
kuwaitis
oil-field
>legitimately
pigeon-holed
war"
peace-at-all-cost-hitler-supporting-genocide-abetting-wimps"
indignation
mold
>hypocrisy!
'80
nostalgia!
[of
'50
derogatory
pinko
iraq..
<1r34n3$hfj@horus
deletia
hitting
non-native
english-speaker
>#consistent?
>#moral
>#individuals
sticking
cosmology
>#emirically
>#who
>#largish
s)he
calculating
logically
>#i've
>#consistent
>#enlighten
nerve
gravitate
imaginable
almost?
_always_
*within*
*moral*
*system*
>#you
>#their
>#dislike
>#them
_you're_
_exactly_
>#subjective
>#objectively
>#can
claim?
credence
hir
'incorrect'
come?
easi
polynesian
matrilineal
>#some
spaniard
immutable
>#scientific
<schnitzi.735603785@eustis
schnitzi@eustis
>battin@cyclops
>>apart
>>skeptical
>>been
>>petition
disgraceful
blah-blah
pledge?
noisy
iq
hilmer
hilmera@storm.cs
.orst
cascade
cheesy
'ol
uhmericun
shield
raleigh
<1r76ek$7uo@fido.asd
<1r5ubl$bd6@horus
<1r4o8a$6qe@fido.asd
#noting
#has
#kind
inter-religion
catholicism
protestantism
#"motivates
allows?
#under
#certain
flavour
'allows'
atoricity
'certain
circumstances
labourer
#protestant
extremist
#being
incarnate?
#labourers
*wasn't*
this"
'stop
killing'
ensue
#grab-bag
ad-hoc
#all
motivator
enabler
#"we
#else?
unionists
non-catholic
speculated
@stop
#based
heartless
synonymous
overlap
veer
|>there
|speaking
|bullshit
lawdy
by?
silverio
cj@sgi.com
thumpin'
fearin'
hatin'
24:13
jacob
jere
:7
seventieth
unparalleled
revived
confiscate
tantamount
memorize
amos
unfold
vi
13:16-18
-m
24:21
:9
hadn/
behead
:4
humiliation
hesitate
torturing
consign
sung
johnny
...-m
redeem
torment
ring^h^h^h^h
brimstone
-revelation
14:9-10
season-ticket
holder
hats
5,000
stadium
--m
vii
mountainous
attune
discern
"as
weather
daybreak
i-95
outbound
closing
stream
radioactive
[get
season
flashlight
battery
pioneer
viii
lookout
[perot
ix
deceive
prosperity
hungry
airwave
christ-like
charisma
tactician
limbaugh...-m
prohphet
likeness
worhsip
demonize
hope!
fervent
sould
return!
cluff
v22964qs@ubvms
mike%luick@ubvms
up.
-negativland
ub
>>>theory
>>>are
#define
rant_mode
spon-
taneous
non-life
#undef
agney
paranoid
magney@cco.caltech.edu
<healta.171.735538331@saturn
officials
inject
yet?!
fbi?
myabe
t.r.m
*own*
watson@sce.carleton
.ca
carleton
ontario
this->opinion
my.opinion
carletonu.opinion
<c5ue4t.g4k@news
.rich.bnr.ca>
bcash@crchh410.nosubdomain
.nodomain
discusion
verging
define-out
neo-quantum
dismissing
obseve
category..
bounce
trapping
satisfying
carefull
ussual
every-day
<1r98voinnr9q@lynx.unm.edu>
<c5y93b.708@blaze.cs
>>speaking
>>go
>find
>vacuum
>speed-of-light-in-vacuum.
constructor
<1r9fuj$bdi@lll-winken
.llnl.gov>
>>vs
>consistently
>former
>often-repeated
<30160@ursa.bear.com
>speed
quantifiable
>will
hmmm
sitting
60mph
0mph
stationary
coincidence!
moving
*sure*
long..
>standard
sci
soc
>cease
>groups
>alt
>fundies
"elevating
frankly
_our_
loonie
freshman
jeesus
get?
alt.fan.brother-jed
imbecilic
s/n
browns
booby
distraction
leaven
mainstreaming
swamping
bounty
_little_
bounds
agreement"
"legally
contractual
_enforcement_
ostracism
enforcement
unaccepted
law_
congruent
_necessarily_
_may_
coincide
similiar
>against
>crime
>played
civilized
backruptcy
threatening
non-physical
privledged
hussien
whover
pale
him/her
_peacably_
disassociate
whine
<1993apr20.195907.10765@mks
mike@mks
brookbank)
<1993apr15.151122.4746@mac.cc.macalstr.edu>
jonestown
900
1978
sufism
quitedifferent
annihilating
sufi
path.
<30192@ursa.bear.com>
>>>speaking
>>>go
>>simple
>>say
>>find
>>vacuum
>>speed-of-light-in-vacuum.
>nature
>randomness
non-objective
<ufnyj2a00voqit9vpa@andrew.cmu.edu>
nm0w+@andrew.cmu.edu
>jcopelan@nyx.cs
>gipu
>nicknames
timer
o'
d'oh!
<1993apr12.143834.26803@seachg.com
chrisb@seachg.com
chris>>blask
>>>add
>>>block
>>>penalty
override
determination
ludicrou
bombs
condusive
planner
*military*
laudable
tyrant-dictator
unarmed
fleeing
mangled
innocents
oil^h^h^hlives
kuwaiti
surrendering
roads
devious
ploy
misidentify
tyrannical
rummage
henry
217
reinstate
knock-on
cleaning
showcase
cameraman
paperwork
continent?
wiping
would've
better!
lower
vigilante
state-of-mind
succumbing
verbal
vigilantism
bulk
<c5wjes.2du@hilbert.cyprs
descarte
bloke
prudence
>assumptions
<1993apr19.112706.26911@monu6.cc.monash.edu.au>
>hmm
mta
_lack
deities_
'convert'
anyone?
_beliefs_
beliefs!
alienate
worldview
well-thought
<1quim9innem8@ctron-news
manuscipt?
forger
decend
duplicate
patricia
shanahan
pats@cray.com
<lt92v8innkks@exodus
<c5t5sf.8oz@mentor.cc.purdue.edu>
<1r6uojinn94b@barney.cs
.city.ac.uk>
lionel@cs
.city.ac.uk
lionel
tun
#>|>#>#theism
#>|>#>#belief
#>|theism
#>|is
#>|argue
#>|have
#>|to
#>assumption
#>gullibility
#>blind
#>reliable
#>fanaticism
#field
#>brands
#>argument
#repeat
#fanatism
#there
#gullibility
#men
#>|>(2
#>|irrational
#>|been
#>|the
#>|not
#>based
#>be
#>and/or
#>second
#>axiomatic
#>used
#an
#axiom
#out
#>|compared
#>|their
#>say
#using
#>|more
#person
#b
#evidence
#contents
jail/kill
-dan
ashlock
tunnicate
danwell@iastate.edu
covered,though
mathew?
mutually-agreed-on
_only_
effecting
validation
posters'
socialize
oxymoronic
quaker
theresa
analagous
.com>in-reply-to
interesting..
pittsburgh
<c5pxex.fyi@portal.hq.videocart.com>
:if
>right
>questionable
non-
anarchistic
woul
_enlightened
interest_
_legal_
_moral
code_
comprimise?
legal?
insertopinionhere
tabacco
taxation
spanking
milage
state/country
<1993apr22.132909.5001@nic.csu.net>
<1993apr22.004405.28052@bnr.ca>
>factor
>publishers
>spotlight
>kind
fatwas
incitement
barbaric
dramatic
escalation
spotlight
valiant
defender
everyman
decouple
hue
defame
sensibility
annoying.
lash
admirable
palatable
far-reaching
turmoil
oblivious
restraint
boldly
literary
heroic
knight"
,mounted
stee
fundamentalism"
disingeneous
mischievous
desist
enlarged
triggering
ecstatic
publicity
grand-scale
'apologists'
sub-culture
exonerating
polarization
monitor
>months
>worldwide
endanger
rug
jerked
fizzle
of>them
_were_
ah!
tip
7:30
>>muhammed
consistency?
well-written
arabic?
>they'd
*weren't*
beautfully
>muhammad
_after_
regulate
>>(although
>>insult
>>suppress
>>mention
case?
interviewed
khomeini?
mecca?
translation?
you...not
--travis
travis
jensen
jensen@peruvian.cs
.utah.edu
jensen@cadehp0.eng.utah.edu
taj2206@cc.utah.edu
<1993apr15.135650.28926@st-andrews
>>rights
>>her
restrictive
turk
15:50
j>
mst3k
lunch
scrabble
keg
bass
ale
set!
>religio
<115287@bu.edu>
>>>>>a
>>>>huh?
flog
chopping
>>>hands
stoning
maiming
lightly
_bad_
misjudgement
misjudgment
>>>>>>"orient
>>>>>>exposes
>>>>>read
>>>>well
>>>because
>>>it
substantiated
blabbering
>>"islamists
>>guilty
verse?
misspelt
>>>islam
extramarital
>>>suppressedin
marial
sexis
>>>read
>>>people
>>>a
>>all
adolescent
overly
commensurate
partner
<kmr4.1575.734879106@po.cwru.edu>
<1993apr15.000406.10984@princeton
qpliu@phoenix.princeton
q.p.liu
>>>so
wondering
obedient
obedient!
_the_wholly_babble
:_the_users_guide_to_invisible_
_pink_unicorns_
si
>newsgroup
>appropriate
>esoteric
>substance
>shi'ite
>charge
error-free
sinless
_prima
facie_
attemptsa
degenerate
monkery
>finished
15:23:54
<khan@itd.itd.nrl.navy.mil
loosen
banking/interest
stab
extrapolate
misgive
>posting
>morality'
>hehehe
>transcendental
goal?
<1993apr16.222525.16024@bnr.ca>
<1993apr16.171722.159590@zeus
>jmunch@hertz.elee.calpoly.edu
<1993apr15.212943.15118@bnr.ca>
slandering
>slander
prophets(
a.s
swampland
willful
caulmny
chevelle
tranny
manny
sawdust!
mohammed
>"fasad
>magnitude
corruption"
escalate
>disorder
>actions
>"god
slimy
scum!
>resulting
proscribed
>"make
right!
stereo
croak
grass!
>>picked
>hanging
>painful
>firing
>days
>belonging
categorizing
pb
appearent
cursades(a
agianst
muslilam
land'
persiecution
<c5zu3k.fzd@news
>1)on
>comment
...in
>2)why
originator
lamontg@mead.u.washington
verdant@ucs
.umass
sol
lightman
envy
entrench
"memoids
self-gratifying
drug..
proclamation
closeminded
rubble@leland
heath
_right_
>burning
pat
buchanan
>non-"god
fearing
inhabit
capital-r
competitor
>>hanging
>>painful
misnomer
>>firing
>>days
>(painless
<1993apr21.184959.9451@dcs
>dan
>stubborn
>pink
...[nice
invisibile
daemon?
gmills@chemical.watstar.uwaterloo.c
<1qme79$c0k@kyle.eitech.com>
>>#>in
>>#>now
>>#>science
>>#you're
>>maybe
underload
>>obtaining
>>subjective
>>ordinarily
>>though
>estimation
>shit
chicken
gauge
truthful
truth-determination
veneer
>>#>#like
>>#>#not
>>#>o.k.
>>#>important
>>#>meaning
>>#>any
>>#>des
>>#this
>>#seem
>>#accepts
>>#it
>>#is
>>may
>case
>quantum
succeeded
hierarchy
>>#>and
>>#>valued
>>#twaddle
>>#that
>>#i
>>#a
>>care
>>procedure
>non-sequitur
unconstructed
>mathematical
instantiation
othertime
acquisition
grasping
>>science
>>method
>>valuations
>>o.k.
>>meaning
d.e.s
_why
chip_
works_
value-based
notion/definition/concept
linkage
phenomenological
_valued_
fact-in-itself
>suns
unpopulated
>values
>genetic
>revolves
lace
value-related
value-driven
<1r1cl7innknk@bozo.dsinc.com>
>>anyway
>>read
out[
>grew
>new
>strange
glossary
*satanic
verses*
.books
vijay
raghavan
"jahilia"
<1r4b59$7hg@aurora.engr.latech.edu>
>insist
>respond
<space
aliens>
<elvis>
<big
foot>
<blue
unicorns>
everone
whopping
liner
non-experts
a.
b.
deficiency
inadequacy
contextles
unidentified
disproving
hockey
puck
hyperbolic
paraboloid
dive
willfully
giraffe"
sloat
morton
[pp
70-71
misquote
lewontin
84
ecologist
graber
angele
oregonian
`giraffe'
far"
antony
brutus
sinuosity
snake-oil
`organizing
principle'
organ
[sic]
>jews
denver
users
.lines
44
<1r5e1vinnkn@gap.caltech.edu>
>kcochran@nyx.cs
>>>>wait
>>>is
>>please
>>contradictions
dissimilarity
>>define
difficult"
hundreds
>>>isn't
=kcochran@nyx.cs
=my
<1quei1$8mb@horus
<1993apr15.181924.21026@dcs
1000000
alterian
big-hearted
benefactor
bug
atm
p(a)+p(b
)=1
alterius
p(exists(b-h
p(not(exists(b-h
lack_of_evidence_for
evidence_against
*extremely*
...this
[either
big-
atm"
buck
cardinality
voila
screaming
#[with
sc
oneof(benefactor,bug
benefactor/bug
dosh
3)
`absolute'
#`relative'
w.r.t
clumsy
'rapture'
a=0
'one-by-one
dismissal'
#(3
p(b+b
p(bb
*or*
_wrong_
_one_of_which_
non-rational
chuck
agnosticism/weak
#exactly
h[i
p(h[i
diametric
incorrectness
*exactly*
#thread
=0
sum(p(
x|h[i]
#luckily
#occasions
frank?
#although
#(i
cleese
#"evidence
*falsifies*
#estimate
*reduces*
a!=0
kv07@iastate.ed
miliseconds
kv07@iastate.e
astro.ocis.temple.edu
x-newsreader
tin
pl8
lyndon
awhile
petition
anniversary
christensen
christen@astro.ocis.temple.edu
sabin
vickers@ics
.uci.ed
>"evolution
>centuries
>approaches
sited
ambivalance
107
...one
beset
<1r8ou3$41u@horus
<1993apr22.070854.18213@nuscc.nus
>#i'll
>#anybody
telnet
nyx.cs
complet
notarized
<1r9oa9$42g@horus
>#>ordinarily
>#>could
>#>though
>#estimation
>#shit
>#science
>worthless
bun
uterus
f?
>#just
>#mean
>#sense
>#value
>f=$3
$3
!=ma
>directly
it(in
3090
big-endian
manual.
>"important"
fleeking
worthiness
orthogonal
>#>the
>#>may
>#case
>#assumed
>#quantum
>#it
>unsupported
>begs
'value'
"useful
ambiguity
obfuscate
clerk
autobiography
franklin_
alive?
<930421.122032.2c0.rusnews
up-to-date
re-save
x-news-reader
vm
1.24
unmake
inflationary?
creation?
fluctuation?
self-aware?
necessay
unchanging
evolve?
<8473@pharaoh.cyborg.bt.co.uk>
martin@pharaoh.cyborg.bt.co.uk
>>prepared
*i'm*
deans
picnic?
mayne@pipe.cs
<pww-190493085759@spac-at1-59.rice.edu>
lightning
rod
eighteenth
>interfered
striking
colonial
boston
bolt
sterner
francisco"
flurry
homo-
t'other
cruz/watsonville
'accurately
scriptures'
started"
>high
>ready
>forwarded
'telephone
metaphor'
eyewitness
textus
nestle-aland
<c5s9tv.10h@news
.ksu.ksu.edu>
<1quc6u$8qu@cc.tut.fi>
a137490@lehtori.cc.tut.fi
<114902@bu.edu>
<c53jqd.mdb@blaze.cs
<114320@bu.edu>
counter-fatwa
>>>khomenei
rushdy
_satanic
>>>took
>>>anyone
borg-ish!
vell
vor
vogon
there!
<1993apr24.152611.5376@rotag.mi.org>
>>estimation
>>shit
>employ
>answer
>happened
>truth-determination
>turns
>veneer
>condition
kevin?
>>assumed
>>quantum
>*also*
>doing
empiricism.
boyd@acsu.buffalo.edu
.uucp
logic?
know.
xtain
man!
fruitles
distress
addict
opium
coz
trademark
lazarus
toy
highway
highway.
<c63aec.fb3@cbnewsj.cb.att
>lazarus
>lawsuit
trademarked
backward
funniest
doesn't!
b.c
>church
formalize
>publish
<pww-180493195323@spac-at1-59.rice.edu>
>(peter
voluntarily
chaste
graeme
t.g.nattress@uk.ac.ncl
{-----hitler
nibor
vashir
shape-changing
psychopath
{-----john
secret.------------------}
<c62b7n
.6b4@news
}why
}literary/historical
}firsthand
visit?
_alice
wonderland_
printed
_archaeopteryx_
solenhofen
<1993apr25.020546.22426@mnemosyne.cs
:05:46
>>jsn104@psuvm.psu.edu
>>>prepared
>(i
munchy
party!!!
leathe
accessory
<1rbpq0$ibg@horus
<16bbacbc3.i3150101@dbstu1.rz.tu-bs
>#by
>[7
>demonstrable
>mr
>agnostic
objective/absolute
dispell
<w_briggs-250493134303@ccresources6h58.cc.utas.edu.au>
w_briggs@postoffice.utas.edu.au
briggs
>wasn't
carpenter?
>include
agonizing
cancer
carpenter
built?
stair
abrams
cabinet
cross?
pressure-treated
lumber?
bumper-sticker
ford
escort
apprentice
pickup
<c62b52.lkz@blaze.cs
>instance
clot
kidney
blockage
keyboard?
r"
out-of-the-closet
well...maybe
fabulous
feather
boa
sequined
mia
farrow
wore
gatsby.
<w_briggs-250493154912@ccresources6h59.cc.utas.edu.au>w_briggs@postoffice.utas.edu.a
guys
gal
asexual
opportune
'messiah'
switzerland
messiahs
>christ
>you've
pulls
stunt
>outlined
>appearances
scandal
>acts
sandhedrin
wo
1/(6**12
>>robert
beauchine
bill?
>(a
>(b
>(c)
>(d
>(e
>giving
foundamental
homer
*good*
metaphoric
literalism
<1r5cmninnb8@gap.caltech.edu>
intentions?
>convince
implementor
*at
all*
natural"
denial?
tailor-made
schneider?
hel
<1993apr25.165315.1190@monu6.cc.monash.edu.au>darice@yoyo.cc.monash.edu.a
>>(deletion
>>>each
>>found
>>day
>two
>understood
still.
interprtet
21:32
immobilize
heavens?
21:34
>>sounds
immobile
<1r5emjinnmk@gap.caltech.edu>
>"cruel
>pain
>rather
short-lived
drawing
quartering
bleed
noodle
<19930329115719@mantis
303
t-shirt
3065-192
garden
grove
92642
<19930419105253@mantis
146
1.3
phimanen@cc.helsinki.fi
pekka
himanen
18.70.0.226
broker
repairman
<115687@bu.edu>jaeger@buphy.bu.edu
>leniency
>told
>misjudgments
>>allows
>>primitive
dominated
machistic
sufficeint
orient?
>sex
>measures
>strong
whe
*overly*
<1993apr16.211458.1@eagle.wesleyan
.edu>kmagnacca@eagle.wesleyan
>nope
>ethnic
>automatically
>turks
texts
<1ren9a$94q@morrow.stanford.edu>
<c5ztju.fkx@news
>>>why
tossed
>>unbiased
independant?
turpin
historiography
*specific*
*including*
>hand?
winners
anthe
wie
eigent-
lich
gewesen
participant!
*claims*
book(
*we*
best*
secondhand
gosple
proto-gospel
second-hand
differently!
attest
_logoi_
thirdhand
overwhelmingly
refract
historico-critical
some-
bultmann
schweitzer
high-point
shaping
<sandvik-250493163828@sandvik-kent
<markp.735580401@avignon>
markp@avignon
ashbury
height
tripper
>change
rewiring
>solid
haight-ashbury
dissatisfaction
ameliorate
mumbo-jumbo
'new
realities
<c60fmr.c3e@rice.edu
<2590@tekgen
.bv.tek.com>
23:26:20
bobbe@vice
beauchaine;6086
;59-323;lp=a;yayg
...execellent
*sooooo*
blissful
hyam
maccoby
mythmaker_
>biological
imnsho
punishemnt
poplulation
>excellent
>punishment
mindset
>propriety
>ecomplaint?
>robert
>occam
>childish
>razor
>straightforeward
cute
childish"
excise
non-essential
>considering
>lobotomy
>tough
freudian
sincere?
know"
atheist"
newby
multiplication
49
>scharle@lukasiewicz.cc.nd.edu
>"discussions
>oehler
>fraud
>ahha
>jastrow
ooooops!
expunge
ripped-out-of-context
boy!
sharpen
>#assuming
>#relativists
>#produces
>crowded
_personal_
accountability
>#objectivists
>#is
>untrue
>jfk
compromise?
compromising
commitement
agressive
undue
28833@monu6.cc.monash.edu.au
<1993apr14.143121.26376@bmw.mayo.edu>
*returns
investements*
*investing
business*
#>floating
#thing
#(i.e
#lose
#investor
#borrower
investor
banker
#>relabeling
relabeling
dividend
ofcourse
*banking*
*bank*
junk
---vinayak
<1ql1avinn38a@gap.caltech.edu>
>>keith@cco.caltech.edu
>>>kcochran@nyx.cs
>mating
>disprove
>practices
insignificant?
>>>try
inconsistancy
>>>yes
>>>goal
>>>natural
>indeed
equated
>>birds
>homosexuality
seagull
lesbian
>>>be
>>>otherwise
>>>goal--but
>>postulate
>>earth
>>third
sas
>>work
"objective/natural
<1qkq9t$66n@horus
sahara
66
<1ql06qinn2kf@gap.caltech.edu>
>>schneider
>>wait
>>>we
>>>times
>>huh?
>>>in
>>word?
>>>needs
right-
>>>such
>>he
>>mates
gmm/r^2
maths
"error
<some
value>
.c
>kmr4@po.cwru.edu
>>>do
gunman
group"
anarchist?
mccullou@snake12.cs
.wisc.ed
ion
drown
electrostatic
ir
revolutionary
book"
maharishi
oregon
<2944756297.1.p00261@psilink.com>
bhagwan
rajneesh
mahesh
yogi
titular
wrong.
maharishis
.ap.mchp.sni.de>lines
63
>_can't_
veridical
dubois
15801
swf
<1993apr20.150829.27925@asl.dl.nec.com>
<1993apr17.184948.4847@microsoft.com>
as-yet
unmade
obsevation
spontaneoss
*new*
'repeatable'
specimen
reqtin
peripheral
tyrannosaurus
rex
tremendous
endowed
histoircal
coo-coo
extra-
sarima@teradata.com
tdatirv!sarima
stanley.friesen@elsegundoca.ncr.com
>argue
>teachings
_itself_
>_necessarily_
religion_
rushdie-fatwa
guidebook
inconsiderable
[interchange
hoban
>religionists
nth
>_tsv_
with"
religious/historical
presentation
neutral!
lump
contraception-after-the-fact
legislator
hung
conspiratorial
*individual*
ill-equipped
persistence
>built
foolproof
>suit
>*and*
ego
fusion?
>>mass
>clinton
$7,500,000
guyana
clean-up
<1r4dglinnkv2@ctron-news
sphere
spheroid
geoid
criteria?
mammon
"hey
paper!
"spend
live,
natch
--steve
lurking
stelter
sjs28257@uxa.cso.uiuc.ed
>>firstly
>certain
tep
snuggling
snowflake
turn-on
becka!
jbrown@batman.bmd.trw.co
<1993apr16.163729.867@batman.bmd.trw.com>
anti-recidivism
usa?
would-be
her/his
captial
facilitate
state-aided
life-sentence
<c5l1tg.k5q@news
'inherently'
'absolutely'
'immoral'
what'll
someoe
dealing
bandwith
who've
<1qlb7oinn684@shelley.u.washington
>20
>wisdom
>himself
>commitment
>programming
imitator
<93106.155002jsn104@psuvm.psu.edu
psuvm
importance?
disperse
<1993apr22.130421.113279@zeus
dmcaloon@tuba.calpoly.edu
mcaloon
einstien
knowledge!!
tien
fu
castro
fortune
feet"
deviou
flaws
intense
<c5uul0.n1c@darkside.osrhe.uoknor.edu>
myth?
deflect
disputant
distorted
ludicrous
>mythology
paradoy
viability
whimsical
touche!
<c5uzpe.18p@darkside.osrhe.uoknor.edu>
>misrepresentations
>(which
>avoid
psycho-analyst
>>bullshit!!!
>>rest
>>(er
moyers
videotape.
purification
resultant
postol
demostrate
effectiveness
<2944846190.2.p00261@psilink.com>
:date
10:13:30
:from
:the
:their
:i
:as
fourteen
:thailand
quote?
equanimity
at!!!!!
142
tan102@psuvm.psu.edu
paraphrasing
accpet
hopeful
monster
-this-?
agumentative
word-wrap
rebuttal
<115847@bu.edu>
>_is_
curse
exagerate
unpopular
>deliberately
kuwait?
1939
>heard
aply
>roll
>invasions
genocidist?
tactical
suddam
freind
<1rgmjn$567@access
.digex.net>
>edition
what!!?!??
nonsenses'
shocked!!!
_through_the_looking_glass_
gardner
annotated
alice
<afqlhmi00vb0icemrm@andrew.cmu.edu>
>trajan@cwis
scripture--
wondrous
scrip-
>non-theism
non-theist
household
datapoint
>naturally
unexplainable
veriety
athiestic
>security..
chaotic
minion
>useless
>(they
gobbly-gook
>>chair
>>drawing
>>victim
>origionally
cruelty
electrocuted
quickly..
>hmmmmm?
pardon?
>previous
void?
incorrect?
misstated
>origional
suffocation
asphyxiation
x)
`goodness'
`best'
_fun_
hopeless
'testimony'
_reason_
_hated_
old-fashioned
workload
self-assurance
haphazardly
:9-20
brookfield
wis
>elmbrook
>parent-teacher
>scouts
gisele
klemp
wednesday
pto
sponsorship
>troop
cub
pack
hillside
>surbarban
gail
pludeman
<c5v09t.1dq@darkside.osrhe.uoknor.edu>
<c5v0zp.1dq@darkside.osrhe.uoknor.edu>
<1993apr16.223250.15242@ncsu.edu
<1993apr21.144114.8057@wam.umd.edu>
willdb@wam.umd.edu
williamdavid
>aiken
>b
>>did
>rock
>krusade
krusader
...so
bible-bangers
bible-banger
>created
>(including
>-as
>hold
parady
iup
die?
>asphyxiation
>gas
>lasts
actuality
clean"
non-painful
suffication
nitrious
oxide!
infiltration
boards
`winners'
`losers
vile
withstood
onslaught
`strength,'
>somebody
>"no
>(chinese
madhaus@netcom.co
<c61h4h.8d4@dcs
>quoting
<schnitzi.735603785@eustis>
>quotes
ed@wente.llnl.gov
:03
wavelength
"object
cloud"
solidity
stray
:47
referrence
scientific?
anyhthing
<c5mw03.9qr@darkside.osrhe.uoknor.edu>
abstacted
undermining
compliment
relevence
undermine
senile
invincible
jog
.robert.mcelwaine
free-energy
mcelwaine
ninety
heavier-than-air
newcomb
1901
wright
pronouncement
airplane
'free
energy'
"1st
"2nd
impotence
degradation
depletion
storage
dis-advantage
haze
smog
thick
altitude
variable
#3,811,058
#3,879,622
#4,151,431
motor
magnet
circulate
magnetic
feedback
self-running
1980
"amazing
magnet-powered
motor"
jorma
hyypia
45-48
114-117
spacing
reversible
heatpump
$3.00
2021
hwy.
arlington
va
22202
7-digit
inter-library
'gray
motor'
#3,890,548
'tesla
coil'
inventor
2-10-84
571-2.
taps
'earth
resonance'
harmonics
'spark
gap'
synchronize
coil
'inductance'
'capacitance'
'resonate'
'neutral
center'
u-shaped
tesla
'toroid
choke
"earth
fuelless
propulsion
bigelow
1976
mokelumne
95245.
1930
austrian
viktor
schauberger
'implosion
turbine'
'zokwendle'
erosion
waterway
breakthrough
impel
logarithmic-spiral-shaped
tubing
implode
tapping
rotation
'coriolis
effect'
neutralize
'mcclintock
#2,982,261
diesel
cylinder
compression
rotary
planetary
gears
compressor
torque
truck
slowing
climbing
hills
[david
mcclintock
differential
4-wheel
trek
capacitor
bombard
detector
bulgarian-born
maglich
fusion
'migma'
non-radioactive
deuterium
with-out
energy-wasting
turbine
tokamaks
monstrosity
migma
"new
6-26-78
32-40.
'cold
fusion'
utah
pons
fleischmann
naval
melvin
mile
apparatus
mass-spectrometry
helium
dewey
larson
unified
'reciprocal
system'
1979
anti-matter
thermodynamic
laws"
scratch
low-quality
high-quality
'sant
mat'
'eckankar'
masters
julian
eckankar
sri
twitchell
1969
'astral
plane'
long-time
'soul
travel'
configuration
laboratory-controlled
psycho-kinesis
curtain"
mass-produce
producer$
ve$ted
intere$t$
'greenhouse
spill
mining
subsidize
producer
low-income
hardware
long-range
wide-spread
companie$
utilitie$
uranium
vcr
tourism
traveler
gasoline
revenue
ecosystem
corporation$
bank$
un-altered
dissemination
voluntar
_read_
planting
nurishment
attitude?
>misrepresenting
<1993apr26.070405.3615@doug.cae.wisc.edu>
kahraman@hprisc-30.cae.wisc.edu
gokalp
kahraman
>self-control
self-ownership
pharoah
>look
"since
>going
self-existent
self-standing
self-living
control?
supremacy
>book
heresay
>necessarily
preclue
blur
reconcilable
subserviant
reconciliation
certian
gereral
confur
provisional
disolve
>"obvious
"errors
exacting
molehill
transmit
br>
dgsid
testamen
assension
1:18
iniquity
headlong
burst
asunder
bowels
gush
:5-7
...bought
cock
26:34
14:30
crow?
mar
14:72
crew
thrice
thereon
wept
26:74
26:75
bitterly
luk
22:60
sayest
22:61
joh
13:38
wilt
hast
18:27
>destruction
made!
11:11-13
remotely
scarlet
:28
purple
19:2
crucifiction
a.m.
>inscription
drink?
:34
myrrh
15:23
>women
magdaline
zebedee
magdeline
matt.27:46,50
"eli
eli
lama
sabachthani?
...jesus
luke23:46
commend
john19:30
>events
veil
peirce
>burial
pilate
tomb
tomb?
look;
:40
earth"
10:34
meta
treis
emeras
again"
post-resurrection
day"
:1
sepulchre
16:1
salome
spice
anoint
cometh
>whom
:2
:3
countenance
snow
:5
16:5
affright
24:4
perplex
thereabouts
shining
:12
lain
stole
>appearences
marys
galilee
opon
mealtime
emmaus
village
jion
unrecognised
meal
whereopon
dissapear
arrose
breathe
tiberias
netson
boat
recieved
apparel
comein
manneras
1:3-11
outdo
500
cor
15:6-8
ascension
desciple
bethany
blessed
24:34
13:30
thessalonians
4:15-18
corinthian
15:5
:3-5
minus
1:9-26
mathia
:16
eleven
appointed
ascend
whirlwind
2:11
hath
3:13
observing!
realted
says?
bible(tm
proof?
mc>
genesismc>
accept?
itsel
1:25
creepeth
1:26
fowl
creep
2:18
2:19
rh>
facxt
aligance
non-existant
deliberaty
dense
nonbeliever
budda"
<sheafferc63zt0.brs@netcom.com
sheaffer@netcom.com
sheaffer
deathbed
>noted
[other
>claims
unsubstantiated
indoctrination
restart
obituary
stricken
respirator
recovery
frailty
<1rc9vg$9be@squick.eitech.com
#'value'
#"useful
bloomin'
amn't
value!!!
value=result
computation
'"useful
judgement'
'accurate'
'inaccurate'
'pun'
idiom?
*judged*
'subjective'
judgement?
'simple
phenomena'
'love
freedom'
"best"
#morality
_better_
<93108.020701tan102@psuvm.psu.edu>andre
>>readers
>>let
sysadmin
>vmoper@psuvm.psu.edu
postmast@psuvm.bitnet
p_rfowles
p_wverity
sys
node
<115846@bu.edu>jaeger@buphy.bu.edu
_did_
>law
penetrate
slipped
theodore
kkkaldis
cozy
<1993apr17.122329.21438@monu6.cc.monash.edu.au>darice@yoyo.cc.monash.edu.a
>>>"and
>>>day
>>>swim
>>hmm
>>wrong
washy
<2944159064.5.p00261@psilink.com>"rober
<116551@bu.edu>jaeger@buphy.bu.edu
>>necessarily
>>insinuated
header
>responding
_was_
_insinuating_
ben
show?
<930426.140835.4f1.rusnews
>killed
*revolution*
unsuccessful
terroism
<1993apr27.073723.18577@csis
.dit.csiro.au>
prl@csis
.dit.csiro.au
>king@ctron
out-of
thoughtful
witness?
invert
perturb
creation-science
sleazy
misquoted
<c6697n
.33o@panix.com>news-software
.33o@panix.com>
carlf@panix.com
fink)
<sheafferc63zt0.brs@netcom.com>
>[deletion
>>noted
>>voltaire
mencken
ingersoll
>>attributed
i"
portray
trembling
re-issue
_amok_
>>books
seriously!
>>almost
infurating
>relatives
deathb
>return
revert
>hinduism
kneel
promotional
--excerpt
creator,
_back
genesis_
_acts
published--but
180-degree
post-deathbed
carderock
nswc
bethesda
visualization
seminar
taylor
sponsor
ness
one-day
navy-related
solicit
works-in-progress
stand-alone
videotape
byoh
proceedings
viewgraphs
attendee
lipman
2042
20084-5000
301
227-3618
227-5753
lipman@oasys
.dt
.navy.mil
multi-author
abstact
notification
basin
cdnswc
lip@ocean
computational
signature
voicenet
factsnet
phishnet
stockings@long.legs
shiek
sheep
gnuplot
2-vectors
plotting
array
arrowheads
pointers??
weston
weston@ucssun1.sdsu.edu
619
594-6218
diego
<1993apr3.183303.6442@usl.edu>
jna8182@ucs
.usl.edu
armstrong
dta
dmorph?
dmorf
morph
dtax
tga
msdos_uploads
wuarchive
arjed
bundle
xmemory
dmorfx.exe
dtax.exe
aaplay.exe
dta.exe
download
morphing
buggy
not-ready-to-spread-to-the-mass
frustrate
dmorfx
spline
tp
6.0
durn
>jna
>jna8182@usl.edu
-ryan
rap@cis
.ufl.edu
hp730
workstation
adress
vendor
pc
purchasing
hinckley
kph2q@virginia.edu
sipp
polygon
renderman
sipp?
tham
joth@ersys
.edmonton
.ab.ca
>1-4
r/g/b
machbanding
>5
32768
65000
>color-gradient
_almost_
color-resolution
smooth
color-gradient
situiation
mach-banding
gradient
dark-green-white-yellow
>up
henrik
mach
banding
quantization
intensity
transistion
brighter
darker
--andre
andre
yew
andrey@cco.caltech.edu
131.215.139.2
mac-user
graphics
tttddd
database
dxf?
oehler@picard.cs
volumetric
scan
electromicograph
humbio
cd-rom-based
curriculum
sixth-
seventh-
eigth-grader
neurotransmitter
volotta
stanford
univer
ity
pre-production
state-of-the-art
instructive
two-
three-
four-dimensional
already-completed
visualizations
cd-rom
phughes@igc.org
hughe
igc.
pixar
nextstep
shader
advises
rib
alex
kolesov
moscow
talus
imaging
<alex@talus
.msk
.su>
51
<1pp991$t63@cc.tut.fi>
jk87377@lehtori.cc.tut.fi
kouhia
juhana
<1993apr5.040819.14943@kpc.com>
hollasch@kpc.com
>hollasch
>>bits
chould
>>zero
>>equivalent
24-bit
photograph
b&w
sync
dunno
>render
pixel
buffer
256
grey-level
synchronise
60hz
aperture
brightness
255
dot
254
sparse
'or'
5-10
shutter
>synchronized
1,2,4,8,16,32,64,128..
slice
timing
image-preparation
sloan
sloan@cis
.uab.edu
<h1p4s4g@zola.esd
erik@westworld.esd
erik
cdi
>*much*
horsepower
'better'
xa?
3do
multiplayer
panasonic
>available
manufacturer
lex
sonderen
lex@aimla.com
windows
3.1
visuallib
vga
add-on
cards
metaware
v3.0?
visuallib?
chua
teck
joo
teckjoo@iti.gov.sg
recommandation
royalty
package
c++
games
genus
gfx
advance!
caroline
tsang
<cst@garfield.catt
.ncsu.edu>
<c51eyz.4ix@optimla.aimla.com>
lex@optimla.aimla.com
>>*much*
>video
>>available
marketing
phillips
tooling
300
headquarters
>lex
>lex@aimla.com
>philips
impartial
source!
6.4.19
sird
stereogram
steveq@sndcrft.dialix.oz.au
2d-graphics
rs/6000
dec
gk
hewlett-packards
starbase
plotter
xgk
x11
phig
x-windows
mars@ixos
xwd/xpr
x11r5
dist
#ppm-tools
hardcopy
xpr
x11r4
louzy
grainy
pnmtop
postscript
printer
dirty
dither
graylevel
xwdtopnm
<xwdfile>
ppm
[ppmtopgm
-noturn
lpr
-scale
-width
width
4"
marcel
wijkstra
aio
wijkstra@fwi.uva.nl
|x|
amsterdam
netherlands
======life
<1993apr6.011605.909@cis
kenneth
>1,2,4,8,16,32,64,128..
'8
images'
1bit
work(
non-linear
1*c_1
4*c_2
2*c_2
compination
choise
ctd
litteral
help!
*lots*
pov
texture
animation
wireframe
quadric/quartic
subject?
rs232
a/d
realtime
commerical
505-530-6563
khoro
508-277-6563
ptrg.eece.unm.edu
login
anonyomus
password
cd
/pub/khoros/release
bgi
xvga
>>>kjb/mgl/uvesa32.zip>>
vesa
>>>boards/chipsets
speedstar-24
-24x
>>>24
>>>terry
>>>p.s
>>animator
autodesk
svga
>>running
univesa
hi-color
curiosity..
3.2)
>announcementof
3.2
>directory
3/29.
animator
/daniel..
falk
ebenezum
wizard
d91-fad@tekn
.hj.se
d91fad@hjds90.hj.se
mega-famous
jkpg
sweeeeeden
leinad
yellow
dmorfdoe
fade
bitmap
bitma
i'
thi
unreserved
ere
reshape
ignor
ance
pong
pacman
visicalc
dbase
pagemaker
multi-medium
yet?
algo-rithm
public-domain
jpeg
gif
fractal
immense
contemplating
samedirection
outwards
clockwise
counter-clockwise
flipped
re-ordered
2d
galbraith
wgt
wordup
toolkit
co-programmer
egert
turbo/borland
320*200*256
shareware
backspace
loading
bit-image
flipping
resize
warping
palette
fading
floodfill
sprite
animated
onscreen
joystick/mouse
sb
voc
cmf
tile-based
16*16
tile
320*200
scrolling
flus
animate
pcx
ems/xms
barry
egerter
egerter@obelix.gaul.csd
.uwo.ca
mget
wgt*.zip
simtel20
mirror
pd1
:<msdos.turbo-c>
nic.funet.fi
pub/msdos/games/programming
up-to-
signaware
corp800-4583820
800
6376564
memo
bcc
vincent
05/04/93
sci.image.processin
yyqi@ece.arizona.edu
yingyong
qi
arizona
handwrit
genoa
ati
ultra
2mb
330$us
>...>how
vertex
p,q
q,p
*both*
warning...warning...warning
traverse
enforcing
"ok"
(p,q
),(q,r
),(r,s
s,t
),(t,p
queue
*marked*
outward-facing
shared
counter_clockwise
recurse
index
facet
iris
developer
algorithm--
/usr/src/inventor/tools/ivnorm/
--gavin
gavin@sgi.com
>d9hh@dtek.chalmers
harmsen
>>1-4
>>5
>>color-gradient
>>see
>quantization
>--andre
'mach
should've
'color
mach-band
quantizise
d9hh@dtek.chalmers
chalmers
sweden
<c4va9r.kk7@taurus
.nps
.navy.mil>
stockel@oahu.oc.nps
stockel
opps!
ige
viewer
dos/windows
computervision
safford
bsaffo01@cad.gmeds
313
696-6302
disney
cheap?
386
clueless
brant
rit
moshing--
cesspool
-a
stereoscopic
tektonik
volcanic
scape
unpredictable
fractally
>should<
fiend
explicable
earth-shaking
self-similar
huh
jpeg?
work-
trying-
barnsley
demo
iterate
there,
encoding
decoder
bio-medical
experimentation?
sampled
mpeg
soth
lordsoth@uiuc
sas58295@sumter.cso.uiuc.edu
polygonsthat
bio
0-63
0-255
colourmap
compressing
rgb
triplet
geoffrey@cosc.canterbury.ac.nz
canterbury
bag
christchurch
oook!
stgprao@st
.unocal.com
ottolinus
>i.e
>albeit
hire
ea
<johnsh-040493161915@mustang.stu.rpi.edu>
recently-released
macintosh
quicktime
.mpg
iicx
quadra
fly-through
fractal-generated
58
compact
v1.5
8-bit
16-
nine-megabyte
stuff-it'ed
meg
binhex
c'mon
1.2gb
there..
it'll
hugh
johnsh@rpi.edu
rensselaer
polytechnic
binary
newser
microsoft
decoding
from/to
tiff
scour
seus
checker
tsr
achange
autocad
digitize
ntsc
gamma-law
non-linearity
gamma-corrected
monitor?
circuitry
errror
amjad
soomro
ccs
amjad@wam.umd.edu
monochrome
mono-driver
mpeg_play
mlee@eng.sdsu.edu
<1q7615innmi@shelley.u.washington
kshin@stein
shin
preprocess
handwriting
thining
graph
alogrithm
those?
processing
theodosios
pavlidis
stolen!
gonzalez
wintz/wood
$55
here-
checked
<1993apr10.160929.696@galki.toppoint
ulrich@galki.toppoint
5.0
specification
2-3
hitchhiker
galaxy
infuriate
me-
anyway-
themselves-
"tiff"
greeting
640x400
640x480
0x100
256,000
8514/a
wd/paradise
kyanko
rob@rjck.uucp
weitek
p9000
chip?
micron
winmark
help..
high-performance
accelerator
boards/chips
winmarks
42m
3.11
50+
benchmark
wintach
low-level
quadrilateral
non-windows
delaunay
triangulation
3-d
advantage?
triangulated
irregular
equalateral
autocarto
8..10
utily
regis
tektonic
esacpe
formats
goto
corel
.cdr
.ppt
xgif
xv
<c51eyz.4ix@optimla.aimla.com
<1993apr6.144520.2190@unocal.com>
<h48vtis@zola.esd
.sgi.com>date
23:13:45
arch
archer
surly
archer@elysium.esd
archer>
madonna"
sexium
/lars
lars
fischer@iesd.auc.dk
uncommon
dept.
aalborg
univ.
followup-to
steelem@rintintin
.colorado.edu
steele
located
svr4
amiga
-lform
-lmenu
-lpanel
provide?
prentice-hall
fmlus
mgmt
eti
0-13-020637-7
high-level
menus
subroutine
panel
menu
manipulation
shell
shell-like
1f
3x
multi-window
>-mark
>steelem@rintintin
edwards
813/786-3675
crash%ckctpa@myrddin
.sybus
813/787-3675
uunet
sloooow
wallet
merkelbd@sage.cc.purdue.edu
merkel
<1993apr11.132604.13400@ornl.gov>
ednobles@sacam.oren
.ortn
>>i've
.tga
povray
diamond
>>speedstar
_24x_
>>jpeg
cjpeg
cview
uvesa31.zip
dvpeg
darn
>image
alchemy
somwhere
netland
yep..
tseng400+dac
15-bit
32k
sneeze
--v
neal
millernw@craft.camp.clarkson
clarkson
prefect
dark@craft.camp.clarkson
ibm'er
shipping
yesterday..
3d-studio
impulse
....(1st
ibm...
key-framming
raytracer
do/apply
fx
ripple
....and
brushmapping
brushmaps
...(ie
objs
backdrop
animted
idea...
500$
retail
3d-animation
renderering...!
....does
list??
--->1
328
0184
trb3@ra.msstate.edu
trb3@ra.msstate.ed
boutwell
well....i
studio
allright
imagine-request@email.sp.paramax.com
helps!
<734553308snx@rjck.uucp>
>gchen@essex.ecn
.uoknor.edu
<c55doh.2ai@constellation
.ecn
.uoknor.edu>
>support
ahh
punch
calculator
640
480
307,200
300k
640x400x256
250k
bios
512k
contour
linesfrom
delauney
criiterion
krige
pvconway@copper
.denver.colorado.edu
pvconway@cudnvr.denver.colorado.edu
siggraph
``chance
art''
indig
imagician
artware
7:00pm-9
:00pm
mcluhan
39a
crescent
non-members
non-member
beta
artwork
startup
allocate
hands-on
indigo
myck
kupka
computerize
stereoscope
upstairs
myck"
nomination
18th
465-0943
465-0729
coachhouse
wellesley
39
mediaeval
mccool
mccool@dgp.utoronto.ca;
zyeh@caspian
.usc.ed
zhenghao
yeh
geometrical
voronoi
tessellation
aurenhammer
f.
geometric
acm
23(3
345-405
okabe
sugihara
k.
spatial
wiley
471
93430
532p
d.f.
n-dimensional
polytope
j.
24(2
167-172.}
17(4
189-193
watson@maths
.uwa.edu.au
61
380
3359
nedland
6009
stu
lynne
executable
.sources
>speedstar
>jpeg
vpic
5.9
6.0x
windows?
4-??-92!!
ss24
os/2?
bresenham
that>
stepping
aaaa
bbbb
cccc
incremental
springer-verlag
heidelberg
ideas?
double-step
wu
rokne
331-334
ellipse
ieee
56-69
ray-traced
mtv
rayshade??
stroked
fonts
ima
fonts/chars
i'am
reduction
'92
connectivity
___________________________________________ooo__(-)__ooo____________
erwin
keeve
peter-welter-platz
w-5000
cologne
computergraphic
+49-221-20189-132
-192
computeranimation
+49-221-20189-17
academy
keeve@khm.uni-koeln
decoder/player
alt.binaries
.pictures
.utilities
dmpeg
v1.0
stefan
eckart
dmpeg/dmplay
decode
i,p,b
352x240
24bit
on-screen
dithering
floyd-steinberg
grayscale
color-space
640kb
ms-windows
super-vgas
idct
chen-wang
optimum
coefficient
non-separated
multiply-accumulate
2d-idct
'fast'
128
dithered
+/-0.25
+/-0.5
saturated
subjectiv
sensitivity
redish
stefan@lis
.e-technik.tu-muenchen
486/33
dos5without
4meg
8meg
reboot
dos5
win3.1
ideas???
heaton
nr
mcc
manchester
m13-9pl
275
6011
6040
g1yyh
g1yyh.gb7pwy
.#16.gbr.eu
sgi
exhausted
everyplace
hava
alot!
chad
cipiti
af774@cleveland.freenet.edu
cipiti@bobcat.ent
.ohiou.edu
chad@voxel.zool.ohiou.edu
black-and-white
software/hardware
comp.sys
.sgi.graphics
dane
hendrix
dane@wizard.dt
dtmb
div.,|
hendrix@oasys
hendrix@nas
.nasa.gov
abraxis@iastate.edu
<abraxis.734340159@class1.iastate.edu>
address/phone
number?
jgreen@csd
.harris
upper
fortran
runon
char(218
char(196
char(197
<1993apr13.025240.8884@nwnexus
.wa.com>
<1993apr14.044946.12144@labtam.labtam.oz.au>sender
news@julian
.uwo.c
mccarthy.csd
:46
graeme@labtam.labtam.oz.au
graeme>
@article{fungdraw
title="
run-length
operations
author="
khun
yee
fung
tina
nicholl
dewdney
journal="computer
forum"
year=1992
volume=11
number=3
pages="
c-267--c-277
clipper@csd
inputs
convex
inequality
intersection
<1993apr14.102007.20664@uk03.bull.co.uk>
scrowe@hemel.bull.co.uk
crowe
>polygon
ray-polygon
390
0-12-286165-5
intersect
spl
lamont
sciviguy
534-7968
spl@szechuan
.ucsd.edu
microscopy
resource/uc
diego/la
jolla
92093-0608
bolshevik
bullshitviks
yevgeny
yevtechenko
meeting...
cubic
bezier
v1,..,v4
w1,..,w4
w1
w4
distance?
ti)
anvance
reprinting
haines
topic..
/jonas
fishing
laze
undecidable??
baraff
duff
deb@charisma.graphics
.cornell.edu
comp.graphics
keyword
np
jordan
ursyhon
metrization
ncsmith@ndsuvax.uucp
lyle
formula/algorithm
raytracing
semi-algebraic
uncountable
non-compact
polyon
adobe
0-201-10179-3
output"
showpage
zorn
lemma
halt?
turing
aliasing
mathematica
isbn#
automata
hopcroft
ulman
kernighan
ritchie
dickens
td@alice.uucp
overkill
at&t
murray
bleak
dobbin-dullman
dullman
dobbin
obfusc
37,ii
33-947
17(a
line-polygon
hamiltonian
without(
grobner
lpi
np-complete
turing-completeness
cray-3
millisecond
scatter-gather
deb@svax.cs
lipschitz
'89
caltech
jonas-y@isy.liu.se
pi
successive
2*pi
relible
comp.graphics,comp.periphs,comp.sys
.ibm.pc.hardware
sonny@trantor
.harris-atd.com
<c4tkgm.1v6@unix.portal.com>
wil@shell.portal.com
ville
walveranta
port?
a-b
shopper
com1
com3
christoph
chan-nui
channui@austin
#include
<disclaimer
.h>
ttyl
24-100
marvelous
grad
automated
dominic
laus
cs_cylai@cs
.ust
.hk
8~>
too!
garbo.uwasa.fi
svgabg40
subdirectory
bgus
readme]
supervga
everex
trident
8800
8900
9000
tseng
4000
chipset
video7
tweaked
register-compatible
verbrugge
clump@cs
.mcgill.ca
honk
blat
wak
ungow!
platform
upgrade
week"
waiting......
'soon'
8hc@mentor.cc.purdue.edu
ab@nova.cc.purdue.edu
>tiff
>carefully
>choice
either-
>ab
tight?
tiff6
gripe
numerology
tul
cptully@med
.unc.edu
carolina
chapel
cb#
7525
966-2699
27599
unc
interleaf
cgm
done????
-mike
mcconnell
emm@cray.com
dahlgren
month..
<1993mar17.185725.13487@relay.nswc.navy.mil>
rchui@nswc-wo.nswc.navy.mil
chui
reality(vr
vr
terminater
lawnmover
terminator
lawnmower
film-quality
high-end
sun4
hp-9000
bim-6000
etc.)?
immersive
simulator
pilot
contiguous
sustain
distract
real-time
kernel
multi-processor
bypass
priority-management
uniprocessor
sparc10
hp
rs-6000
crimson
multiprocessor
onyx
symmetric
multi-processing
smp
shared-memory
architecture
multi-sample
anti-aliasing
realityengine
realityengine2
crawling
jagged
aliased
gl
opengl
pex
off-the-
order)
redwood
dvs
sens8
sausalito
worldtoolkit
postgraduate
monterey
npsnet
free!
gemini
irvine
gvs
simation
visionwork
audiowork
view,ca
head..
goggles
boom
binocular
omni-orientational
hamlet
gloves
smattering
menlo
park,ca
cyberglove
cricket
kaiser
electro
optics
carlsbad
sim
helmet
sunnyvale
pleasantville,ny
mtd
s/w
pimental
texiera
mirage
myron
kreuger
sci.virtual_worlds
mogal
2011
shoreline
blvd
94039-7311
m/s
9l-580
415
390-1460
964-8671
mogal@sgi.com
<jonas-y.734802983@gouraud>
jonas
yngvesson
%%title
%%creator
ab@cc.purdue.edu
%%for
regulars
%%languagelevel
%%documentneededresource
%%endcomments
even-odd
ineofill
infill
*******announcing
multiverse-1.0.2*******
multiverse
multi-user
non-immersive
x-window
entertainment/research
client-server
based
socket
customizable
hierachical
attachment
cameras
ambient
functionality
hierarchical
polygonal
phong
shading
mouse
disappoint
powerglove
enhancements!
customization
selectable
installation
initialiser
handler
registration
callback
init
collide
collision
detection
worldserver
initworld
initialization
positionobject
installworldobjects
.wld
getworldtype
animateworld
wild!
81
dactyl
270
dogfight
72
ftp.u.washington
pub/virtual-worlds
multiverse-1.0.2.tar.z
z-buffering
gouraud
hmd
friction
management/interaction
comms!!!
rectify
*love*
desperation
over!
contributions/criticisms
/dev/null!
robert@acsc.com
cpuserver
.acsc.com
location!!
public/virtual-worlds
turbo
pcx,dbf,and
paging
320x200x256
800x600x256
question?
palm@snycanva.bitnet
--yuan
che-yuan
wang
cw21219@uxa.cso.uiuc.edu
cywang@ux1.cso.uiuc.edu
commpression
64
casablanca
1.3mb
fp
10fps
1.2mb
5-15
playback
floppy
disk
davidr@rincon
.ema.rockwell.com
register
serge
ivanov
serge@argus
.su)
r-d
reaction-
diffusion
rds
techniquesfrom
witkin
kass
blurry
unstable
online?
terran
boylan
eisa
graphic
1024x786x24
matrox
resoultion
striaght
isa
self-promo
flyover
recognisable
mandlebrot
sets!!
cad
rudimentry
recommendations
email...
<1qflpk$re1@usenet.ins
mbc@po.cwru.edu
comet
_speed_
imagine?
studio?
ior
3ds
bump
ipas
flare
hooked
fewthing
penumbral
dispersion
shareware/freeware
vivid
polyray
rayshade
help?
tracing
mucho
mackey
mmackey@aqueous
.ml.csiro.au
addictive
workshop
archie
adkins
:ag1.zip
ag2.zip
draftc.zip
envision
envis1.zip
envis2.zip
neopaint
neopnt.zip
d.petro
petro
kwyjibo--
bald
windsor
petro@server
.uwindsor.ca
>hi
>(please
cost?
madsen
mmadsen@ics
thinning
hello..
.dxf
jogle
geigel@seas.gwu.edu
<1qc1fginnbv4@darkstar.ucsc.edu>
koehler@secs
.ucsc.edu
-defined
radius
sx,sy,sz
ex,ey,ez
-cut
touching
backbone
pillbox
hemisphere
lee
lee@obiwan
.rsg.hac.com
alpha?
6xx0
vax
66x0
decstation
>series
sgus
cisc
mainframe
complained
position/share
aparant
mistyp
jupiter.csd
.unb.ca
.unb.edu
\pub\library.info
seri(systems
kist(korea
cad/cae
6th
floor
yousung-gu
eoeun-dong
daejon
305-600
client/server
ph.d
chul-ho
lim
82-42-869-1681
82-42-861-1999
jxl9011@129.21.200.201
colors
colormap
srnelson@speedsail.eng.sun
nelson
dave.mikelson@almac.co.uk
mikelson
'open
day'
browse
>exhibits
july
$20.00
$30
312-321-6830
conference!
year!
sw
fractint
3dstudio
i'have
f1
prix
unfortanat
lap(10?
.prj
.3ds
dxf
apreciate!!!!!
.pov
'm
cpu
comparision
3dstusio
rosa@ghost
.sm.dsi.unimi
dave@optimla.aimla.co
ziedman
sells
apparant
showing
licensee
2g1@bcstec.ca.boeing
rgc3679@bcstec.ca.boeing.com
recommendation
plaza.aarnet.edu.au
/graphics/graphics/mirrors
drwxr-xr-x
14:32
avalon
.chinalake.navy.mil
compute1.cc.ncsu.edu
/mirrors/wustl/graphics/graphics/mirrors
09
:15
wuarchive.wustl.edu
:29
ya!
nic.funet.f
128.214.6.100
15:11
/pub/csc/graphics/format
rwxrwxr--
95442
dxf.doc
rainbow.cse.nau.edu
134.114.64.24
17:09
jun
/graphics/formats
rw-r--r--
23:31
ftp.waseda.ac.jp
133.9.1.32
/pub/data/graphic
39753
dxf.doc.z
j"org
wunsch
dl8dtl
joerg_wunsch@uriah.sax.de
wrong..
...or
.o
joerg@sax.de,wutcd@hadrian
.hrz.tu-chemnitz.de
will!
joerg_wunsch@tcd-dresden
sunsite.unc.edu
pub/multimedia/utilities/unix
mpeg_play-2.0.tar.z
mono
-dither
threshold
mono2
halftone
jan@pandonia.canberra.edu.au
newmarch
csc.canberra.edu.au
137.92.1.1
/pub/motif/mpeg2.0.mono.patch
leon
dent
lcd@umcc.umich.edu
compiled
vogl-graphic
libraryfor
ibm-p
ms-fortran
ms-c
martti
toivakka
mtoivakk@abo.fi
486
mip
svr4s
sparcstation
'dogfight'
'dactyl'
module
static
core-dumped
extn
5543
sts@mfltd.co.uk
!uunet!mfocus!sts
pariah
rm
-rf
blaze
obscurity
rum
ruff
splat
newbury
ii"
178,068
ftp/gopher/mailserver
snail
versamap
culberson
pd
derk
ederveen
fidonet
2:283/323
+31-70-3323202
d.n.m.ederveen@research.ptt
.nl
ederveen@hlsdnl5.bitnet
clipping
vatti
lcec
hudson
03051
vatti@waynar.lcec.lockheed
kunius
bunkyo-ku
hongo
7-3-1
113
young@is
.s.u-tokyo.ac.jp
photoshop
elliptical
thehalftone
sending
iici
linotronic
l300
imagesetter
2.0.1
appresh
t.i.a
unscene
maier
anl
|ú]---*z*
glued
veiw
michael_maier@qmgate.anl.gov
lynx
sedative
*would*
fork
*several*
flush
sgis
onesy
twosy
peek
'to
niche'
hiss
fume
libelous
sumex-aim.stanford.edu
cheinan
03:11:39
pst
info-mac/source
3d-grafsys-121.hqx
14:13:07
steffen
ove
franz
<cfranz@iiic.ethz.ch>
questions@mac.archive.umich.edu
grafsy
1.21
income
grafsys
ver
bugfix
promise!
fastperftrig
fpu
visualise
'ye
package???'
pascal/c
achse
translating
scaling
dimensional
single-line
hidden-
line/hidden-surface
projection
1.11
881
020
fixed-point
*100
compatibel*
object-class
feelt
'oop-guild'
non-commercial
<1qg9fc$et9@wampyr.cc.uow.edu.au>
g9134255@wampyr.cc.uow.edu.au
coronado
emmanuel
abad
pov??
noel
serveral
font
eq
borland
cone
name/place
flexibel/faster/use
peter.vanderveen@visser
.el.wau.nl
vmode
speedstar
modefor
r3d
bit.movie
riccione
italy
contest
softimage
*very
impressed*
.amiga.graphics
activa
ciao
sergio
ruocco
ruocco@ghost
.sm.dsi.unimi.it
ad994@freenet.carleton
jason
wiggle
22:01
:00
>hello
help!!!
>send
>blessed
>stephen
pratical
craig
lindley
reading/writing
to/from
pcx/tiff
usuall
$50.00
waldensoftware
pc?
run-time
licensing
schmitt
lehman
rschmitt@shearson
mitsubishi
p78u
bit/pixel
hewlett-packard
bits/pixel
weber
weber@sipi.usc.edu
interactivelythe
_simple_
ok;
pane
loris
rengglus
+41-21-6934230
swiss
+41-21-6934303
ch-1015
lausanne
renggli@masg1.epfl.ch
16:49
<1993apr15.144843.19549@rchland.ibm.com>
ricardo
hernandez
muchado
ricardo@rchland.vnet.ibm.com
cd-i
68070
68000/68010
7mhz
*truly*
motorola
68060
680x0
lineup
8-d
codec
centris
650
30fp
16-bit
risc
full-screen
full-motion
sean
mcmain
gopher
:817.565.2039
:817.565.4060
13495
seanmac.acs
.unt
denton
76203
mcmains@unt
hi,has
xga-2
hw-func
truecolor
resolutions,..
rainer
leberle
rleberle@sparc2.cstp.umkc.edu
>help
hear!!!
>finally
-pete
stomp
endian
mueller
thebishop
highlndr@ux1.cso.uiuc.edu
pmueller@mrcnext.cso.uiuc.edu
flock..
my|>
portable
platforms
grievance
...we
4d/20
4d/25
4d/30
4d/35
thumb
4-5
motorola-based
'85-'89
'88-'93
4d
'86-'90
subsystem
architectures
gt
vgx
archaic
bandwidth
cpus
i/o
uncompetitive
r3000-based
multiprocessing
purchaser
r4400-base
64-bit
mis-communication
onesy-twosey
pre-announce
availability
competitive
biz
billy
carter
wcarter@swri.edu
gifs
cartography
tia
dyke
lvandyke@balboa.eng.uci.edu
infotec!infotec.com!lee@sunkist
.west
whats
.inc
<0
-3>
1.5>
0>
<1.33
look_at
2>
light_source
<2
bump_map
surf.gif"
surf.gif
plasma
-daniel-
kennett
dkennett@sfu.ca
robust
algorithms/code
2-d
outliers
satifactory
newsgroups
raj
talluri
staff
75248
talluri@csc.ti.com
compass
laplacian
grey-scale
novicee
convolve
.image
gaussian
--------------------------2
detection-------------------------*
<stdio.h>
<math.h>
imagewidth
imageheight
unsigned
input_image
[imageheight][imagewidth]
angles_wanted
magnitude_image
int
laplace_op1
3][3
0,-1
-1,4,-1
0}
compass_op1
0,0
-1,-1,-1}
compass_op2
1,0,-1
0,-1,-1}
compass_op3
0,-1}
compass_op4
0,-1,-1
compass_op5
{-1,-1,-1
1}
compass_op6
{-1,-1
-1,0
compass_op7
{-1
-1
compass_op8
-1,-1
row,col
op_rows
op_cols
compass1,compass2,compass3,compass4
compass5,compass6,compass7,compass8
compass1
compass2
compass3
compass4
compass5
compass6
compass7
compass8
op_rows++
op_cols++
((row
(col
0)
(int
op_rows][col
[op_rows
1][op_cols
1]
row][col
laplace1
(int)magnitude_image
*original_image_fp
*laplace1_mag_fp,*laplace2_mag_fp,*laplace3_mag_fp
[...]
